node {
  name: "dense_1/kernel"
  op: "Const"
  attr {
    key: "dtype"
    value {
      type: DT_FLOAT
    }
  }
  attr {
    key: "value"
    value {
      tensor {
        dtype: DT_FLOAT
        tensor_shape {
          dim {
            size: 2
          }
          dim {
            size: 64
          }
        }
        tensor_content: "P\324\267\274J*\322\275\324\025\245\275\016\341\215>Z\301_\276\364\362\245=\200\311\277<\3441p>\030\217\033=\200_\370=T\327l>\350\210->\200E\005\274\220\242\224>\250\177\021\275\004\177h>K\361\217\2762\267\257\275z\333\352\275\000\301\226=\200M[;\324\353L>\334\000k\276tIZ\276\360\"\330<\312\216\220\275\361Ti\276\026\024\204\276 \276q\276\230\353u>\034\rt\276\266\376\211\276\320A\000>\356\314\203\276`\321S=T\347{>\263\367|\276Dv[\275\340\261+>\230\357\256\275@)\244=\000\371\322\274!%{\276Dw[>`V\305\274|\025]>\300\014U=\002\270\202>\340lZ=\252\311\034>\335\272\031\2768\321\330=\"\211R\276\310]L=\300\344\203\274\360m\216\274\254h\216=\202\322\343\275\030p_>X\362v=\274^V>D\000\305=\200\202&\274\025\316\004\276\032-\033\276\020\014@>h\354\010>\"\031\225\276\360;-=\303r\027\276\234\314\252=@`q=\200\003\\>x\376\325=TPL>V\324l\276\234\320\372\2756\337Y\276\220\300\377\274\276\"\250\275p\033\366\2758\200\035=\210z^\276V\2464>\226\214\034\276@\373U=\362]\214\276P\265\200\274\370\221\267=\274\211\325=\006\257\030>`\367\375<D\271\220>\034\0373\276$Fx>xTT\275/L2\276\004M\236=k(\226\276\216\224A>\300Y\003=\277\363\207\276\002|\306\2750\307Y>xN\337=5\021S\276\240\245c<\252Y\335\275\007\372*\276\371\230\206\276\000%\337;\022\365\222\276Hu\035=A`\227\276\240\320\220<\020\343\225<\344{\203=\332\355+> K\354\275\374\030\377\275\000\207=\273\370j7\275l\324e>\300O\230\275\200\270\221\274\302\272\361\275\360I\340\275\266`I\276"
      }
    }
  }
}
node {
  name: "dense_1/bias"
  op: "Const"
  attr {
    key: "dtype"
    value {
      type: DT_FLOAT
    }
  }
  attr {
    key: "value"
    value {
      tensor {
        dtype: DT_FLOAT
        tensor_shape {
          dim {
            size: 64
          }
        }
        tensor_content: "\000\000\000\000\000\000\000\000\000\000\000\000\000\000\000\000\000\000\000\000\000\000\000\000\000\000\000\000\000\000\000\000\000\000\000\000\000\000\000\000\000\000\000\000\000\000\000\000\000\000\000\000\000\000\000\000\000\000\000\000\000\000\000\000\000\000\000\000\000\000\000\000\000\000\000\000\000\000\000\000\000\000\000\000\000\000\000\000\000\000\000\000\000\000\000\000\000\000\000\000\000\000\000\000\000\000\000\000\000\000\000\000\000\000\000\000\000\000\000\000\000\000\000\000\000\000\000\000\000\000\000\000\000\000\000\000\000\000\000\000\000\000\000\000\000\000\000\000\000\000\000\000\000\000\000\000\000\000\000\000\000\000\000\000\000\000\000\000\000\000\000\000\000\000\000\000\000\000\000\000\000\000\000\000\000\000\000\000\000\000\000\000\000\000\000\000\000\000\000\000\000\000\000\000\000\000\000\000\000\000\000\000\000\000\000\000\000\000\000\000\000\000\000\000\000\000\000\000\000\000\000\000\000\000\000\000\000\000\000\000\000\000\000\000\000\000\000\000\000\000\000\000\000\000\000\000"
      }
    }
  }
}
node {
  name: "dense_2/kernel"
  op: "Const"
  attr {
    key: "dtype"
    value {
      type: DT_FLOAT
    }
  }
  attr {
    key: "value"
    value {
      tensor {
        dtype: DT_FLOAT
        tensor_shape {
          dim {
            size: 64
          }
          dim {
            size: 64
          }
        }
        tensor_content: "C\313\032>\302\014\030\276\324\215%\275\372\006\227\2750\242\201<\236\205\234\275s}Q\276\316\375\376=\260\312\014<\367\223\006>\240=\226\275\\1$\275\266\201D\276\332\216#\276\000\332\345\271\341\245\016>2\244\251=\216Y\263\275\350|\225\274@{$<\275\371L>\3222\333\275%\215\375\275>\233\372=\270\325\300<\224z\375\275!\257E>\276\216\021\276D::\276\361\330\007\276\237\213W\2760\261\006\2753S\340\275\004\253q\275\\\261\371\275\"Y\262=iJ >\236@!\276\207\260>>\266\331\212\275\tT\036>6\364\302=\200\324\320<\003#*>p\322\304<=\317.>.y\034\276\230\343$\2752\353\036\276\334`\035\275\010\026\332\275|I[=\250\357\375<\224?X=\357KY>\277w!>\317\007@>Z\032\301\275 \3209\275\253\332\023>\200\'\276\272\207\344\335\275z\277\341=p\035\262<\332\305\244\275\034\316\200\275\326\366\206=@\2263\274^\260\240=,\250\231\275\342\025)\276\037N>><\223\346\275\206*\277=\000\355p<\366{\t\276X\257\203<\312P1\276\252\252\327=\231\007U>\355K\023>+\\S>P\022\022\274\362m\273\275\317oV>q\003\323\275G3\010\276\371\013%\276\\\0257\276[\321\005>\n\276\303=\230\207\260<\210\266\377\274\225c\325\275\335\355\005>\211\020!>9\271\312\275PU\250\275l+b\275\244y\177\275VY\205=\262y\264\275\010\303\253\274}\230;>DJ\023=\220 X\276,\215\346\275\226\224I\276\002\342\255=\265\205\n>\024k\016\275x\362?\276\347\2317>\031\321A\276\206l\275\275\3046\241\275@A.\276#\3726\276\306i\227=\340\374\"<:G\226\275{EG> \004\313\274\300\000\003\27637]>\220X<\275\313(I\276\205\263D\276\353\217L>v\211\275=\207\234L>\021\257\n>\373\371\025>\362\216\267\275F\332<\276\350\257J\275\006\026\342=\370&\226\274`\220=<\314\267u=\007\022E>\253`#>\220\337\306<\340\233\244;\302\032\256=\327\221:>r(\302=\212y\211\275F\242\307=J\273\305=\007rI\276|6\340\275\310\344)\276\357\001J>\367dA>\322\302\301\275\341\\\t\2765\243;>\300R%;R\336\200=\254\231p=&K\333\275:8\270\275\205\221L>\275\262O>\\Ke\275\275\020\337\275\013S!>\240\206\010\275\340\022\251\274\2463\343=1\204G>\005\271\n>0\023\256<r\227\014\276\014\2306\275J\205@\276\321g>>\214\2210\276\223\026\034>\235?U>\353V\345\2754\226\005\276\322\300\241=\020\263c\274@\253\375<\300\035\363\273p\274\261<\260C\350\274\206o(\276p\006\336\275<\375&\275\002[\321=75\010>\374~b=\322\277\260\275p\364\341<0\014\024\275h\345\377<\307\221=\276\367\372[>xj\251\275Vf\375=\003\250C>\304G!\275 \233\212\274\350\331\000\276\344\242n=j\001\306\275\336\"\224=\017&Q\276\356T\352=\203\211\036>\000B\";\314.w\275\330P\222\2757\365Q\276Ze\206\275\305:]>\016\235\314=\270\207T\275\220a\371<\271\312*>\360F#<\353\030>\276`\304\220<\366\327\313=\333LO>\350\210\r\276\200X\330\273\"\016\373=\320\244\230<\307\363;>\367s\356\275Ae\023\276h#\306\275@\035];3\374\t>\215_C\276\324!B\276\013\242R\276\237H?\276\341\200P\276\377\343\366\275\210Y\230\275^>5\276A%\007>)Q\016>\335\216%\276\210\000$\275/\337X\276Z/\310\275\002\r\203=a_\030>\362\271\203\275\212\205\217=z\351\327=z\217\247=T/%\276d\250^=pO\010\274SM\364\275\300g\371\273X\311\220\2749`\305\275\034;Y=nY\355=\020\231\262\274\371I >\322X\332=\214&V\276\372\037\236=\347\227L\276X\352\300\275t\244h\275\334\314w=q\243\002>H\250\014\276\222\016Q\276\332\261\342\275\321\302\007\276`4?<\354\r9\275\232P\343\275\005\021\">\224\267\326\275\024\255]\275\032\352U\276\306\"\344=0%\245\274\220KP\275\000\242g\272\276\266\033\276>\216Q\276\'\3700>\254\351\177=P\220\010=\177\312(>\364\273L\276\245;\014>\234\373f=p\315|\274\001\"\030>LK\020\276OfD>\264\224B\275hZ\350<\336\355\360=\267vO>0\360\361\275d\010W\276\251yI>}xC>y\362\033>4\201\010=\007M\n>\020y\230\274H\"6\276\252\306\377=\360\371\362\274\361\025K>\277x\342\275\\\366:=\010\263\362\274\373\224\013>\214\356-\276V\306\273=\324\374%=\245\211$>\000\325\237<P \253\274\302\353T\276\357\017\003>\004%\232\275~y\341=\354\215\017\276_\322I>6\337\276\275\336\003\235\275\026\223\307=2\221\352=\266#\216=S|\037>\035s\004\276\337\364O>\264\0369\275\200\"N\275}3@>o6\013>Vv\252=\274\032M\275\270\320%\275\325\340\374\275{.\026>\332\235\256\275\034RW\276\344\250\204\275\316a\261=S\371M>\344\023\003=\220\203n<x\004\227<\342\366\374=\375\307\022\276\337\271\014>k\304D>\\\231F=3\223&>\206&\204=\3131\023>\322a\264=\027\231<\276\346\344\374=\344\236.\276\020\301\200\275\207\342F>-\231?\276\302w\364=\353\205?\276t\206x\275\337\2314>\ry\304\275R\224\355=\213dU\276\r\2324\276.\313\357=\363\342W>q1E>\302\n\363=\247CK>A\376\025>S\236\364\275\006?\247\275h=\243\275U\246B>\272\003\034\276\237\343\035>y\261I>\375H=>\375\002#>\276`\370=\"\226\\\276\262>\037\276\270rk\275*(\237=\306\tP\276\364\344J=\210\202\247<@\n+\273p\304\032\275\330.?\276\316\352\315\275 \035\002\275\314\006>=\224\347?=\363\273T>\261\2156>\354H\010\275\000{D<h\212\301<%</>:z\030\276\n\331\n\276K\357\033>&\305\337=\335_,\276V\223X\276\353{#>\356G\251=?\3402>\210\240*\275x\333\214\274t\023\000\276\337nA>\036\036\240=0\251\262<w\355W>`\311\"<\376O\232=\323\214U>@\341\237;\352(\247\275\336\253\002\276\260\252n\275\354=r=@\005\357<$\353\004\276U\2134>\nv\270\275HtH\276pY\365\275\315\366B\276\n\341\251=\034\321V=\024h^\275\362Z\207\275\217]Z\276 \333\321\2742\345\223=A|\032>t\265n=f\323\314=\260\216s\275u\334L>P\364\007\275pV\t\276\027\034\373\275\365\3108>\311\377W>\276z\201=\026\362\'\276\201\233T\276\3524\317=\030)\016\276\037\020F\276\376\036U\276\010\001\365\274\330\200D\276\333\2754>Q\250<>\211\367\007\276\205T\024>`\300[<\321\363\n>\373\2218\276D\343i\275L\n3==\212\\\276\300\374\346< \245V<n\225\036\276\337lN>\220n\006\276=\257,> L\374;\2371\017>\254v&=p\337\304<G\3212>\033\216 >\340>\013\276%\325\006>\320\322!\276\277\353L>6\374\205\275.7\307\275dp\235\275\267\'\017>\021\226 >\274\001\254\275%N\036>3\266G>;x\002>\301\322\t>H(\250\275\347\357\\>\315\244Z>\036q\215\275bq\337\275bI\305=Y\246M\276y\263P\276\234\363L=\254\246+\276\0343@=\302\275\351=>\032\337=\202l\241=<`\023=\314\3077\275c\301)>\322c\227=\214\003;=\323\006\005>\025\n@>\r\321\317\275,e+\275c\212*>\032\247+\276\340\232\375\273]2\t>(\251\240\274\357lP\276R\240\316=\310\001\343<0\0002\276}`\003>\026\251\353=\335c#>\307*\027>\n#\305=Y\030P\276\210\236\273<\220\203\351<\214\032\260\275\300\221\344<\377\312N>\014\0056=\342\205\231\275R\205\030\276\276\"\032\276\330\313p\275\321\222\014>\361\031K>\266\214\340=\371\240\373\275\244\031\004=R\254\364=\354\2531=\020\224\267<\331<7\276\017\212\001>\333\244J\276\306\253H\276<\213\006=\214\026]\276\267\000&>\265\211Q\276\366q\234=z@\253=\022\340&\276\312\026\210= \334\000\276\260\243\035<\200e\377\273\360\316p<\177\026,\276\360`\215<\346\240\250=\030@?\275X\301\367\275\311Z3\276\361\310L\276\027]\276\275\261 7>u\373\016>\340\304\253\275\326\030\244\275|\246\037=\014\0338=\272\345\033\276D\252\007\275\000k\352\274v\371\371=N\230S\276\352\324\032\276\3639\'\276\332!%\276\240\367\273\274\204\rW=\315\360P\276\231\334R>l^\027=\302\320\220=\216\3740\276\rF&>\374\307\216\275\246\231\003\276\220\315T\274\230o\004\275n\354\002\276\005U.>\350[\370<^\006\216\275\231\244\013>\270\330\260\275\205\265\035>_kQ\276\215\000L>V\350\226\275\252\301T\276L\021@=\026\236\262\275\217\365\036\276a[\024>\300g\231<\371_U>\224\264P=\301hS>.\374\346=3v\024>\000\'\263;+\357\360\275\260\234O\275\316\253\216=\342\345\303=1\202\025>\223\310 >\316\267\025\276\346\264\237=e\324\022>\365\0330\276\325FP>\224\373X\275\001\343N>i\020?\276\303\327 >\210I\364<Y\326\326\275\200\251F\275\327\314*>\331\007\327\275\230\375\233\275\377\257\002>\206\2400\276\365\254\r>_\2512>\240\360S\276}aF\276\2551\014>\272.\354=\352\232F\276\n\354>\276k>#>\024\022\327\275\205=\">l\023\203\275\210Z\251<f\253,\276zc\313\275\3022\024\276\372#\237=\234.\355\275C\3743>\333\332D>\200SW;\202\312\025\276\017\246\036>F\243\266\275d30\276.~\375\275\236H\306\275\222V\330=\224U\335\275O\273\032>L\372t=\306aF\276\333\177B>C\236\035\276\274\320\035\276\031\0275\276\341\216M>\226U\372=H\321R\276\316\207\021\276\373\022X>\370\331M\276\277q\356\275<)2\2754EI\275P\350\013\275 \343\010\275\234#{=~\230\270\2758q\354<\261\223V\276~\3401\276\000\207\351;\302\350\323=0v,<V\374\220\275\242\"\025\2764E\364\275\377?4>\310\377\352\275h\242w\275\311\276\325\275\360\222\307<orY\276\336\367\226=T\021\"\276O{1>\200>\222<\340^^<\204x==\021R(\276tU\n\276X\003\001\275 \277\374\274@\246,\274\352>9\276Q\254\037>6\265\374=\247d\n\276\247\365\307\275\\L\317\275*\376\325=\331\356O>\034\223\032\276QB\\\276\366\354%\276\266(\354=Uy<>?Z\310\275\206\225\306=tF\022=\373\000\r>\345\034$>,AZ\276\200\313\244;\351\3170>\314\325\"=Y\210!\276\010.\324\275q\302[>\264Vx\275\344\254v\275\246T\353\275$\252\"\276\276\211\n\276\317\256>>n\365\020\276\276\373\352=L\305\013\275\240\212C<\237\271[\276p\016\025\275kCR>\324\345s=0?G<Q#\030>/\321\317\275\351\214!>`\362\241\274\252\357\322=\000\013\204\275Q\223\035>\0043\003=\302\324\242=\365cE>\234=e\275\310\354\343\274eA\004>\356\210\277=a%\364\275Pu\345\275\3642\333\275<w\023=\312cV\27685\037\275\224]X=\201\'S\276\240\375\321;\352\030\321=7\016\r>\342\026\207=\n\217\003\276R\262\344\275\232\334\305=\000 \365:\262S\365=_\022\013\276:\230\336=n\244\345\275rB\314=\332!\275=\236\347(\276\'\243\034>/\026\024>M9I\276@Lj<\240\365\276\274`\366\370<\021\337W>\357\267?\276\253\202F>\"\331\022\276\350\223\022\2767\013\016\276=\330M>\255H\346\275h+\255<\034\244v=\353\303X\276\032\223\253\275P\030Q\276k\357\002\276)\223C>\301\324F>9\362\323\275=n:\276\025\021\024>\020F\277\274J\262\246=\"\371\004\276\251\024?>\202\3156\276\204\376\224\275\000\265\212<\340\356\211\274\373\034L>\020\362\230\275\210\374\024\2768\234\341<uMK>\220\030\022\276\311\020\030>\274kz=BM\232=\000J\033\276A^F\276\200\353\312\272\361&\\\276\326eB\276\205\244Z\276:\310\213=>9\312=,\r\025\276Pm\n<\006?\307=\270\251\211<|_S\275tpN=x@\374<\367\347;>\023\367\004\276T\302?=\300W\016\275\260\251+\276\213\204=\276\360?$\274x\221\205\275\0245K\276\344\"\257\275\206\330\345\275\234\240b\275,\001\213\275+\\N>2\307\204=\224\336\035\276\324\233\263\275<eW=\252\257\307=\300\022\372\273`\303\254\274\370/T\276\364\225N\276\230\022\211\274 \220(<\336I\335=\215\013\032>\334/p=\221WC>P=\202<\376^\004\276\000\306\304\271\314QH=\026,\211\275\311\'8>d\r]=J|\270\275\362\345\362=\355\307\030>\300\r\034\275\366\310\357=\232\2304\276\214\312S\275\031\346X\276\230E\034\276\375\2776>\031\307I\276\"\356\037\276\021q\r>\002\326\201=|\310\005=\262\346Q\276\335dY\276/\232\320\275\014p|=\000\036\000=\205\344\356\275v=\231=\312X\220\275>0\377=\244I\027\276l\027I\275X\001\034\276\275W;><yO=\237\220\353\275gR\013\276g\361\035>\330\335\017\275\365dO>\237F\026>1\231\026\276\236\317\375=\0013\032>\250R\261\274\205~\327\275}d;\276wo1>\340\300f\274\266]\314=AJ\022\276@\347\373;\220?\345\275`\210\353\274\340[\311<]\365\372\275\3743\220\275\2217\352\275\320\rS\275r\350\026\276N\031\260\275;\025\001>\231mS\276\222\325\310={B:>X^\010\275\356u\233\275\245\325C>\346Z\255=de\016=\000?U\275\002\n\357=\226e\005\276\245\034\001>J\004\302=\240f\255\274\264\330\326\275\266\370\004\276\226\267\343=\326\237(\276\350b\367\274\373m\333\275\300\017\245\2749\"J>\302 O\276K\213?>Y\2772\276@\036[\275 \333\247\275AY\376\275\016P\213=+\036;>\211#\361\275%\007@>/\336\003>mL\\>\230\034|\275b.\267\275\r\0171>\323d\017>\325Y\314\275R\210\312=\n\025\314=\373B\376\275\276\021\244\275=\222\004>\351\232 >\254*\024=\0100\003\2754\n\\=x\226\252\275\223\233\001>\322N\\\276J]\356=\264\356\037\276@\036@<5\271=\276<\256Y=Q\265\027>\271\353\376\275\3125\\\276$\235Y=P4/<\247\315\370\275\310\211\004\276\310\030\010\276\363\355\013>\360\226)\274\3545\253\275K\354P>X\252\352\274\230\353\274\275\217AB\276\236\212\356\275\014\217{=\227\3259>.F\277=Bb\353=\037\2250>\232\222@\276j\242\323=\257L\007>p\'\306<P\013{<\000\274\331\274\014\211\324\275\301\261\002\276\204j?=\220~\205<\234\204*\275\026\322\244=o\354\003>O5\r>\\\001\010=*\360\324=\2675S\276\220V \274x\371m\275\373\373\023>\217\214\r>jg\254=n\256\"\276\026\016\372=b\372\272=+\250?>\031\345\037>Kf<\276]Y?>\201\0364>j:\004\276\374\245\030=\262>\220=\246\256\205=ct\031\276f\037\311=\367\257%>\000\032\246\272pyc\275@\215\237\273\367e)>{,C> \2034\274)/W>\t\2135>\250\t\371\274\302n\304=L\3434=\272\334\255=\253#\036\276\302~S\276\257PN>\222e\320=\360Ja\274h\355\255<\023\3670>\026\233\317=\245p\005>f\276\372=P\nn<\020\033\026\275@\017\325<\244\002@=\206\306\233=^\373\032\276\272\232\032\276J&\270=n\302\270=\224,w=\270Y9\276\214\321v=\235\3337>\311\025R\276\217\036\303\275\357/)\276\315M\365\275\330\262:\276\\\240$=\304\026c=Pj:<\265\034Q>\224\205>=\304\177=\275\344\030\r\275\344\221\006\275\255\321\276\275\0101\225\274S\177K>\tK.>\330?\222\275}e\005>\336\010\215=n\374\237=0\314?<W\311\007\276&\316N\276\316\n\233=\200<\270\275\204t\205\275\036\272\361=\360\026\275<\016\231\256=Kl\030>-\341\274\275\300:\370\275x\222d\275\024\237v=\272\341\027\276\004\\^=\364{\332\275@\274\303;\326 \311\275@h\342\274\350\314\233<\342\263\313\275\221l;\276\207G\017>\377\203\t>\3339F>\307\232\t><\3200=\200a\246<@&\036\275\'\355\t>\312l\241=/I\352\275\000\000\334\266\202@\253\275UDG\276\365\365\340\275C\222\013>\375\210\316\275Z\255\357=\330\326\331\274@\033\302<\314\021u=e^@>\353\314\035\276\266\357\256=\0174\024>Uz)>\276\007\220=c\222\036>\200o\002=\332\261\307=\344$`=3[B>Z\376\256=tC\013\276R\366\337=\330\207\375\274\274\357\030\276\322\211\203=dg_\275\274\317[\275\240\373{<R\262\214=\330,\266\275\265\005V>\330\206\237\274*N\217=\200\242\036;\245\227*\276c\267A>\374 \316\275\266_\201=P\366]\275\364\255U=\346\020\004\276Tw\t=\207\323\004>\300R\237<\000lI\273tP9\276\370e\225<\246=\267\275\2652\034>,\256a\275\200\315\030\274\260[\002\275\'\267!>\365\245\027>\206&\355=+\335\372\275 \316\342<\317\317\032>\240[\272;\270h,\275\314\241\305\275\277\215\325\275\260mE<\2360\212=\000\214b\272VR\302=c!.>\216\037\276=\325\310I\276\212\353\323=\361\365P\276\300\375\255\274]\325\304\275\"\320\270=\310U\036\275\250ab\275\272\221\027\276\227\2777\276\332\371!\276\233F\020>:\007\307=\017\313Z\276\347d:\276@\177\374;\000\332P\276\352\272\004\276\251\037L\276\312C\370=\244\222(=(\001\211\274\322X\006\276\000\363\213\273\350\222\306\275W\026;>\200E\344\275R\200\227=\306k\"\276x\377\262<\366\241\351=L/[\275%jM>\332\245\003\276\307K\t>\006,\334=\021\370\002>\226\274Q\276Q\\$\276\345\016\331\2750\260\031\275PaT<hC\245<v\273\350\275@\023O\273\200\001\221\275v{\341=\337B\007>\313xV\276d\004p=\260\301\221<\367\037\017\276\004QI=\317\2018\276h\000\332\275\217\261?\276\272\014\274\275]KI>gc\356\275T3Y\275`vR\276\262\245\224=<3\315\275\000\237\301;\205\177V>z\200\317=\370~;\276\231\3672\276.\334\255=\352W\210=\230\365\024\275\016\374\207\275t\252\242\275\276\341\022\276,vK\275\020\240\236\275 \376\211\275Z\352\020\276\367H$>\306\030\233\275\334\025o\275\300}\016\275\326c\272=h\276\270<\236@\n\276\234\230\t\275\203VZ>\236\0316\276\266\316H\276\237J\372\275;%!>\340p\310;\000a\227\274\337\341\014>Bj\006\276\360XF\276\226\225\263=\333\306?>\340\200\327;2k\260\275,\0078\276)\0274\276a+5>S\303I\276=g9>\325Z\274\275\004\377\021\276\333\\C>\231 O\276n\355\300\275\216\0319\276\225\342/>\000M\036<`k\367;\024\362*\276[j(>n\261P\276.w\377=\225J\025>`d\023\276\370\265\020\276 \373\221\273\223\213X>\320\365\374\274\313e\023>\210}\275\274L\031\003\276J%\272\275\022\346\217\275\006f\267=\222z\222=\330\337Q\275J\247\216\275\356/\214\275w\256\310\275\271L+>P\023>\276\340\216\241<0\352?\276\203]Y>\335WO>\020\263b\275s\364!>\264\366J=\330\227\\\275uoV>\215_\005\276\215\377\377\275\216\207\267=\244\"E=\323\301\001\276V0\254=\200\276\263\273v\314\244=\240S\320\273Rq\327=\225#\037>\276+\246=\003_)>%\353,\276[\335U>\314$A=\004\022$\275\334\370n=\243\215)>\220q\022\274\264/P\276\000\\\312\272`\365H\275\276\000\204=\306\340-\276\341I\003>\r\377;>\240w\022<\370\023\365<t\2469=+\2443\2769\325E>\310k.\275\330\266\034\276\323u\005>\217\200\037>\334\257p=\024\203\025=N\241\326\275P\014\317\274e6/>\242\255\001\276H\351\204\274\200\210\225;l%t==2N\276\266\220\320=\212o\026\276S\\T>E\264\034>\224\334\005\275\320\202*\275\265;F\276t\245\033=4\351O\276|\036\\\276h\323\n\276\232\\\357=\'ZC\276\036`)\276`\025\315\274\344\034\212\275\266\034\223\275\214\241\022=<M\026\275\\pM=35[\276\271\233@>>z\211=\002\316\260\275P$r\275\344$\025=Ttj=.\277\250=\300 0\274\307\252S\276w\311\355\275\275\202I>Pt\210\274\211\3661>\025\006\025\276bg\341=TN\360\2752\323\214=M\\)>4,\375\275J\035\355=?!\013>\242\002\201\275\321\215\022\276M92>\241|\315\275vH\262\275 \177\212;\300\246\216\275\007\027+>T\346Y=\357M[>\036\034\243\275\356v\021\276\245\225Q>t\007i=\335\331A>\000\256i:\272\237\263\275\\6\013\275\310\246\361<E\261\032>3\036\030>\362\216\260=\3024\207\275\032^\231=\276M\241=\010X\363<oK7>\302\365\247=3>Q>p\252\274\274$k\027\275D(%\276\332p\214=\032\221\253\275k\274\005>\272\344\252=\341\375@>:\261\002\276(\204\213\275\236$\304=\322\263\363=!\375\355\275#\222/>4\377!=\267\020\025>2\272\202\275v\360\306=@\224\030\273\272\\\340=\226\025\310=\352\307\336=\226\256\234=K\036G>/\224\033>\310A\253\274\302\360H\276\3124\310=\343\004X>X\000\206<\222j\353=\004<f=Y\024\324\2752\204\022\276O\3667>N\320\033\276Z\245\212=\372\303\222=\224\232a=]\301<>t\317Z=7O\347\275\006\325\314\275\243l\000\276z;\200=\220\017\017\276b\312\032\276\267$\027>\332\233\312=\'$\307\275\205q\000>\334\032|=\014\232\217\275\000\337\323\272\236`\271=\000YB\275g\034\004\276\014\010z\275\230*\245\274w\253Q>\326=\273=@Oy\274R\312\'\276\364C\356\275|\266:=\007\034$>\204`?\275\300n\022;2\210\265\275}`K>\325\230\022>>\375\273=\314\020&=\3459S\276\310^9\276H\007\230\274\350\373\204<\306\326\255=\244\226\027=v\"<\276M\254O>\332I\312=`\255\215<\200\215\327\272\327d\026>D;\002=\030\324N\275\374-K\276T\001\254\275\274\014.\275\354\375g=\024\313%=\3547+\275\342\376\355=\274\301\013=L52\276\306\250\025\276~\201\240\275\032\031\333=K\356->\006\310\232=h\243%\276PA\274\275\177#U>\030\263\207\275\335\321\322\275\366\030\254=\260G?\274\340\372d\274d\005\225\275\216 T\276\212\025<\276\364uj=[\217\022>\234\0325=\340)\264\273t}\020=\302\305S\276\242\023\031\276\320\' \275\220\207L\275^&\216=\310\345\\\275\360\247\213\275V\013%\276\\&\253\275\301?K>\216\355\351=\325&N>\025FU>\366r\026\276-y\334\275\363\3343>\020x\264\274~aI\276\310\331\374<\032\001\"\276\254\261\312\275\202=\322=v&\320=\300\234G;LE\000=f,\372=#\331N\276\232i\226=U\036N\276v\006\030\276\257\242/\276\260b\337\274B\374\226\275\302jX\276w75\276k\347\021\276Y\177.\276`o\232;\"\"\230=\322H\345=\376\243\325\275\200cg\274\216\320\263=fT\366=B\206(\276\000JY\276Pm\"<\233\206\362\275\302\004\324=\000R\240\275\270\341\342<\330^E\275\202%\243=&\242\236\275,\026U=\037\312\030>f\275I\276\000d\332;\311&\037>~\307\225\275\013\276<>\357\025\366\275\272\321\325==\212?>@&\210\275\201\334F>\245\347%\276g\344X>_9\021>t\247\366\275\201\376\361\275Vc\256=\026T\031\276\247\277\027\276\236\302\355=P\215\371\275\"i\252=\323+\030\276\260\366\251\275\300\254\325\274\254b\211\275\352\300\327=\200\300\350\274p\265\340\275\343\034B>\200\214\247\274#-#>\371\026\370\275\"U\345=\220\311\233\274X\001.\276\000\227\351\275\200\240i;OL&>=\3646>8W\024\275h\315?\276(\207\020\275\000`\013:R\326\005\276\374\361\023=\200\302\303<\362\362\315=\335\276H>\374\313r=\254oP\275.\035\306=\311\363J>\006\340D\276\014G2\275\332l\223=\252\214\261\275Q\221\007>\332\270\375=\241\031\376\275\030\374\261<\321\203]\276x\250J\276?G0>\367\233\026\276\255\354*>\321X\316\275\035N\360\2750m{\274Aj\024>\001S8\276\246\351T\276l\177\225\275V\316\213=\\O\001\276`b0<\324hJ=Xd\205\274>B\357=\022\272\323=\362\265#\276c9\023>i\3609>\254\224\002\2768\030\235\275Fq\232=\206\200\373\275\031S\026>j\252\203=)\227\031>\271L\327\275\303\324K\276\032O\272\27584\244\274h\323.\276\324\3513=\216;Z\276$v)\275\032\010\273=\230\254\336\274\212L\223=\"Y\366=p\277{\275\225\033V>CD/>>C\224\275\260\327\020\276a\3429>\270!\245\274\337\324\313\275\257\301!>\210f_\275p+w\2758\365\240\275\013F\017\276<\345\265\275rW\230=w\t\350\275\264r\024=\000\364\241\272|\371%\275|a+\276\027\233\330\275\026\006\026\276\214\312{\275\364\3545=J0\306=bd\341=\224\231\t\275\234\3373=\221\n\026\276\177\322=\276:\325\273=\370\335-\276%\003C\276\020_\371\275\204\210\"\275\310m\200\274\274\310I\275\267\014I\276\2209\270\274\024?1\275\260\036\230<\231\017\013\276\024\231V\276\365@\r>\303\244B>\\\303?=\374l\024=E\362\004\276U\332.>\240\254\017\276(\001\\\275\210\014&\276\264va\275\026[\253=X\004E\276C</>\030\305\366< \205\361\275\306T\233=o\004D\276\320\266M\276\263\355!>=\034:\276:D\t\276\177X\036>\220\330\013\275\340\207\211\273\372\023\222=h7\241\274<\217H\275t\331Q\275da\017\276&\351\235\275\320Q\317<N\n\321=4V\213\275\267\226J>g)\035\276`bg<Nz\300=\316\372\201\275\337\356\360\275\225\370\n>c\336K>`\210\251;B\357\337=^\007\263=\300\006F\274{\200\t>\004\231\020=\226\327\373\275\006i\r\276\237\265D>>\033!\276yTQ>a>\014>,\322\240\275\200\001\371;\252H\332=\333\237C>G\201\365\275(\031\024\276\324\005`\275\225|\t>\250k3\275\354\n\227\275\314_\220\275s\0040>\354\006\010\276\366\340\221\275\274DO=>\352\262=\035D2>E4\343\275,\275\020=4\252+\276=2D>\020ba\2740\207O\274\253f>\276\"V\255= t\202;\240}\365<\367\301,>\260\r\014<\257]H\276f=\316=(<%\276O\037\033>\310\214\023\276aOX>?\3729\276]\367$\276\254\360 \276\2005o;\013\3000>\231%\r\276P\353\262<\'|Q>\236\340\010\276\352\0303\276\200\030C\273\374wO\276\314\217U=\223K#>;Z\036>\252\014\264=\317\371\014\276\021\247\025>\010\345\216\274\277\006\">\240\002\332\273\332A\340=\177\272.\276p\310\005\275\230\320\200\275\340\307\201\275\333\nM\276\370\365\356<\024Q\030\276\250%\023\276\337\246+\276R\305\206=\350\3245\276\022\034\233=8\352\245<[\230F>N\313\250=\265\"\331\275*\256\276=\324\263N=\345\270G>x\264\026\276PLG\275ZF\221\275\370\030K\275X\243\244\275\333YV>\362.\322=\310ME\276t\0061\275\270{\312\274\000 V\270\214\276\235\275*6\303=\306~\222=\222\254\204=\220\306G\276>\205\253=\350\264)\276\340\367=<\035l\r>\330\357\033\276;\225.>\354\364\243\275\'\237\006>\245\311\370\275\314\265r=\266\220\034\276\000\000\362\274\243\200\007>p\205\250\275G\233\342\275F$N\276#\332\025\2768k\037\276o+2\276|\005\035\275t\326d=\330W(\276\013N\025>\000\375\356\272\323q\035>\025\277=>\345\334\034\276\356\210\014\276\225`*>d\016$\275\341\026/>\204\262^=\307V(>\030\265\036\276H\376[\275\2069\346=\240\273\027\275hY\357\2758B\316\274\3579\345\275U\247\014>^\342\033\276\240\330\326<\310\264\250\274q\272\320\275\366\245\302=\306Q6\276<l\035\276\367=F>\031\325\327\275&\222\213=\034\3072\275\365a\\>\020\0161\276\217\230+>\210\310\202\274\227#\t>\222r\262\275,\331h=\264\224Y\275\310\273\216\274F,\234=\016b\306=\254&\030\276\272\266\226\275\315\265S>\262\312\363=\220c \274\314PB\2761+#>w\264S>I\014:>\236\321T\276\215?2>o\352\366\275+`3>\272\227\360=\371K\352\275\366t\206\275\300\363\004\273\300\025\370\274\353\022\033>\240\005K<\274\305\"=\256\206\330=\355\226\025\276\364\262_=\200\225\340:\214\355c=\212\217\350\275\260D{\275\020\210}<\354\353\020=O\356J>$_\366\275\206i\271=\250!U\276\230\335=\276\\\366\234\275Z>G\276\330\341\235<1\025C>>\021\005\2762\274\361=\200j\225:\326\345\311=\330\2640\275\240\033\006=\300\371\352;\324\230o=4{:\276z\340\232=\206U\237=\236d5\276\024kP=n\005\277=x\265\223\274\350F\332\275\232\245!\276\320%K\276\177\217Q>\305cM>c\354;>\342\200\006\276\356\251\376\275\240\361.\274`\021{<\300\334\023\276V\336\335=\3578\035>\000\353\275<[\335\003>\252\366\314\275\312\032\246=\374(\010=J\220\200=\006L\332\275j<[\276\r\341X\276\003f\013>5\001J>\314\356l=\253\\C\276t\375I\275r\003\251=C\3153>\005\035\311\275\255\373->\364KB\2756\014\205=\022\376\001\276N\246\263=%l;>G\214(>\234\217\021\276zE\226=z*\322=Nl\307\275\354\347\000\276\266s\245=\367\327\\>\177\372\307\275\nUK\276\0215?>\307\201\360\275\216\212\316=\257\2736>d\323\234\275\002\242\323\275\260c\226\274|kJ=$\013\241\275\331\207\">6\304\213=k\2474>\007.N\276HN\027\275\240|\256<\235\222\331\275\354\262\035=\251\244\323\275\262\335A\276v\342-\276z\037\021\2760\377\343\275\361\341H\276\311\300 >\014\375V\275J\\\213=\027\317@\276\336\370\252=\344\316W=\361\213[>X1\211\274 t\003=\354\311i=h\377\343\275f\362F\2762!@\276X|\233\275\264\0011\275t\001P=Qo\r\276D#\017\276\203\236\034>\361\373V\276S\313\t\276\320\347\322\275\212\345\343=\235l\326\275\3531%>\030\371^\275Cz\022>\360\214\312\274,\233{\275\200\231\341\273\336O\307=Z\032A\276S4&>>\271\227\275\230V\376\274Bj\363=\262\022\247=X\024\312\274b~\327=XH\343<$\223\214\275&L\025\2765\033\025>\017b<>h\n\256\274\274\035\377\275\274Ln=\275\010=>:\370\017\276\264\305O=\034\303:\276\3776J>\330b\221<\320\321b\275|\'\032\275#<6\276s.\035\276\323\262\002>\007\223P>\224e:\276\323\205Y\276\301\333->w\335[\276\010\305\263\274\327\rT>\177\224\033>\376P\341=xI\361<n\235\344=\376\202\360=U}>>m\324\017>-\272\372\275\360d\001=\310\221\261\275l\342\010\275a;.\276\010\007\264\275\277\340@>\223\240:>\226\246\317=\377\340\037\276:d\016\276\301\0171>\376L\362=\306[M\276C\226\367\275\231yR\276\223\355L>*>\223\275\266\r\n\276J<\252\275\353\275K>\227\020J\276\351\001\305\275\313\237@>\237\260S>\300G\333\273\000g*\276O( \276\261\034\323\275(\030Z\276@\277\216\273\224b\003=F\272\321\275\030\303\353\275\370^@\2767l\031>)\256K>\250L\253\275\364\200\032\275\220\247\024<&\256\307=\223>P\276g\305)\276\021\371W>\004\255T\275\325\3479>I\3069>s\367\277\275\t\353[>lV\036=L\240Q\275\034\266\223\275\032&T\276 5C\275D\355C\275\000\205\343\273b\016\016\276\246\033\366=\345\360\320\275\326\245\207=q<\t>\241qR>\340\0208<2\271\252=\200\324\346\274\025\262\n>\r\265\004>\254q\010\276\240Q\316\273\375\"\'>R6\037\276a\303*\276\251/E\276\354\230K=\211\322:>V\316\262=\214p?\275\272\016\'\276^^\t\276\304\352z=\300\247\232\274\350\t\215\274\304\203\177=\004\301\005\275\014\007Q\276\236\025\321=\340\220<\274-\024=>TG\342\275t\366\000\275\020\214m\274P\266\350<\375\323\024\276\333\344\030>\271\300<>\273\353\032>hY\346\274\373\362\">\232\355T\276$\005v=\304\251`=l\330\370\275\275\274\021\276\26543>\206\311*\276Z~\341=\000\352 \274u\323#\2763L)\276x\340\253<\327/\357\275\347p\">\330\037\305\274\276\035\203=\270C\216<\010\305j\275\204\2207\276T\201|=\n\362\367=\336\016\366=\221\326\000>.\374\242\275\324\230n=0rV\274u\316K>\261x\\>\\\036\033=X\366\261<\260\037\246\274\363+\007>\023K8\276\340\002\352<\000\032\247\272\177\211\004>p\341\240\275PK\014\275|\375D=\026\221T\276#\276S>U\243\000>.\230\323=\364\',\276\220\000F\276\300)\'\273T\244#\276\3644Z=\262(\203=THY=\200lH;\013\034@>\220\214\245<\366\200P\276\220a;<\020\253\003\276:\332\357=:p4\276\261\022H\276\362\312\324\275\005\034/>@ \005\274Jt\352=\304V\013=|r<\276\340\320\r<~\206\267=e\213\005\276R\326\243=\273\327\r>D2w=\325jO\276b\"\371=\317\205P>T\006\034=\234\"\243\275K\023\023>\365R\323\275\026\240\202=\226\313@\276\264+\035\275d\322x\275b\371\214=\227b0\276\223iY>\330=\273\274)\274\031>9h\376\275\210\227\232\274\200\346\322<i\300;>\241\204A\276\340Z\206\275\360\343=\274\347\371\300\275\016\'\327=\2417;>\206\360\374=\201\331\023>\260R\212<\021\345\\>T\230k\275\314\266\033\276a\200\342\275\212\206\246=\226\036\324=z\3739\276s\3106\276\r\"X\2769HH\276\006D\250\275\326*I\276\000\240\2659\346\337\356=4\301\263\275\020\375=\274T\210l=\360r\016\276d\005\n=JV\224=TP\352\275\352\272\337=*\316\341=e\231\036\276\232\021\351=j~\350=\353\021,>1x\000>\376\220\241=\024\3149=(\277\250\275\322\247\332\275>J\204=;1\332\275\323\3515\2760\335\227\274\200fO<\230\273\313\275\257\036\003\276+t(\276\014fn=.\204\226\275o\220\341\275\204\037(\276\322~\226\275\210\'\242\274\\ >\275\3009l;3\333->\264wl=\000na\274#\333>\276$\206\002\276\224\037V\276\237@/>\214\223*\275\026\204\302=w\220]>\211\2041>\325\031\031>\340\350Q\2765\340\017>\341\210\023>\240\326{<\000\244 \276\254zK=\232 \206=\016\370\275=\216\251\332\275\274[x=\034\240B==\330\026>\020\312\344<\320j\006=\r\240\016>\214d9\276R\2260\276\305\226H>\270\'\020\275\246\231\337=BM\302=\"\014\224=\212\246\322=\314Y^=\251g\020\276\215kJ>Z\367\357=;Z\315\275\347B!>0\243_<\000\350\341\274\226\245\201=\332\207\035\276\336\225\207\275U\330\t>\305{\326\275\270\360\367\274\201\357<\276\200\336=;\005\274\317\275\222\334\226=l\\:\275\276\234\207=,~S\275\204\271\341\275\352\274:\276\277\2472>\024\0342=\244\223\017=\355K@>\200[\257<\264\265U=\346O\337=\025G&\276\314\322\177=da\003\275\270\213\337\274:\nB\276\366\203@\276T\315\263\275\274\2477\276\202\335\232=\207\337\366\275\016\022\027\276\340\270a\274\326\206\254\275U\215P>\006c\307=\302?\203=wB\030>@\206e\275\t8@>\264P+\27663\355=^\327\212= \247\233;\nm\355=\236\275T\276\024\347H=4\340\204\2750wO<^\r\247=\274\212S=\350@Y\276\016\277\354\275\214\254\020\275h~7\275\034\234\355\275\227\377X\276\371f%>(\270e\275\024`\254\275\035\016\002>\266f]\276\222\257\317\275\017\t;>\033f#>0\376\343\275\304\3163\275\373uE>r\304N\276C\037$>\3042%=\000t\032\276\032\310\223=z\340\033\276J\235 \276\370\305\246\27566\320\275\301\212\312\275\273\302J>\017\264Q>\250_<\275\264\266R=<\363c=\272?\313=\352OG\276\326\346\314=\234\307[=|\013\210\275VM\241=\353YJ>\013\200\'\276\374\224==@\302\315;\220\273\224<\037@[\276\374|\010\276\335\"A\276\357tS\276J\004\236=|\211H\276&I5\276 _Z\275\036u\276=>1\212\2758\363\232\274wm\020>\224# \275\325\002.>2.\362=k\264\322\275\014\211\020=\314\2101\275jU\022\276\345\233S>#\275X\276\331\020#>\315\254\004>\001+\031\276p\205C<\363O1> \216\020\274|\225w=\2748^=\024t\332\275\216\035\026\276\212\035\375=tVS\275\301e >\344\027[\276\374\312\257\275\337\323\n>\3402m\274\255cW\276\370\200\243<v\352\334\275\022\325\202=\362v\311=\024\250(=\027\225V>LdR\276IQ\014\276|\214\252\275<\345j=\352\305\340=fm\241=Vt\224=pd\010<@\354I\273U/O\276\336*\307\275\260\366\025<\224X:\275rH\232=\277\'4>N>\n\276X\253\325\274\232l\246=\333}:\276\001qR\276\276t\377=\344\234\r=\026\222\370=\257/?\276\361\347\003>E\3066>!\232\014>@>\364\275L;\214\275\271\365=>\303\234D>\007b\005>\334\276%\275\356\263\351\275\364\2720=\260\323\r\275oI\026>\215\025\343\275\234\236\207\275\024\3030\2750\323}\274\370\333>\275\013\203M>l\266m=b\'S\276\311\254Q>\220q\304\274\\H\026\275\027\332\302\275\036)4\276@\337\321<\327.>>\350[\355<\266\030\367=\t\353$\276\305\032$>l\265\374\275\2227\225=\340\004\201;c\252\006>\244d\032\275\007\224\020>\342\265\017\276\220z.<_\031\030>\304DO=r\357\276\275(\370\033\275aB\025\276\330\032 \276\357\034P\276\356\226\235=\240,\350<\364dy=B\311\252=\000\334`\275\372\327\254=\033<5\276\036o4\276\330W\331\274\256\010\256=\220ii<\330\366\272\274\300\007\353\274\343\242\"\276\364\276\003\276h\375\213\275\274\271#\275|\320+\276<\341e\275\360\276S<\261i5>u \372\2759\2426>\0000\276:\002\357\232=\314\305\027\276\202\324\360=P\302\002=\':V\276sL >>?\200\275{CQ>\230dT\275o\342L>\377e\020\276P\217,\275b\375\362=\305\376\016>9\356<>\273\0250\276\2300\261\275\355#5>\237\302\'>:\025\224=\362\303\037\276\320\374*<\331\222\034\276@\267}<\\\346\336\275 \2715\276n-\366=\337\204A>.\362Z\2766d\240=\264\376\236\275\342p\372=\330\243\234\275\006\226\366=L\206_=W\207<> )\226\274\003_\r>\2022\257\275\024\330[=\217/?\276j*\010\276\211\355\007\276V\372M\276\340\336\246\274\341\3252>\240\270\341;\246\312\272\275\"\367\220\275\302m\213=\004a\304\275\344\032\001=5/L\2769\307T>`\313\227\273\244\311k\275m\334\'>\342>\227\275\330\033\251<\023 ]>I\276\000>p\004\326\274\232\033\217=\030H\263\274XHZ\276m\000>>\310\345\232<\220\240\223\275\27071\275\265C\350\275\0074\346\275 \204Z\276\026\337&\276e\347\335\275\322g>\276\363\242\021>@\360\t\276\260\324\302<\2240\033\276\343\277\006>T$\013=0\331\"<\237\353L>\307\321\">Zq\277\275[\021[>C\354#\276\263~!\276!\315\r>\245R\345\275b\227\366=)\375<>u0R>\346\340\312=8H?\275\024k\021\275\200U\025\276\032\320\254=\262N\316\275\356\271\237=\026\331\\\276+\014P>0\371\204\274\304\223*\275\274\222>\275hi\316\274q\370\\\276\343\200*>@\234c\275\320Q\014\276\341{<>]\3551>N\2355\276\351\202$>p\301\002\276\350\001\360<\371\246\027>\235\211Y>|\036T\276\\\261\253\275V=\033\276#d.>\000\366\030<8j\370\275\346\214\000\276\352\021\345=\327\235\032>\27234\276\3250\\>\213\305S>\243\022.>*\014\345=\037*G\276\2242\021\276@\310\353;H+)\275~\354\264=J\345\020\276\020\304\213<\240\001\341<\364\014@=t\241<\276\342\370\210\275\037\2410>\342\307\345=r\000\331=\n\232\247=cM\026>\204\245 \276\244$!=\304\201\030=\202\027\233=I:!>\340\353\303\274y\312:>7\317,\276\351=\276\275\016W\206=\200\250\310\274\302!\030\276\253dX\276\365\326A\276u6\024>\220\301\271\275H\254\001\276\004\274,=F\372\022\276\341\350\t\2768e.\276\344ym=*\374\027\276\324\244&=\266s\203=v\253\200=\364\004\014\275\244\003#\2763*\375\275\242\350\342=\rU\031>\3329\321=Z\"\271\275\270\037\214\275M\211Q\276\213\322@>\224\034m\275YQO>\002{\'\276\213\3143>hhD\276\013\375;\276\316\205\225=\340\352\367<\300S\250\273\3225\244\275|\241\024=\200\025\364\272\235h=\276\260\031d<c+\027\276\263\314\020>\"x\260\275\256A\266=\342*\216=]\256L>\350\373D\275<\007c\275\014\335\034=\037.]>\300\332j\274`\004\002<3\304\374\275\333\002G>\200H\021\276 \300\246<@\025&\275]-\007>e[@\276\223b\025>\240_\307\274`.\032<\206\343\234=\274;`=n\022\026\276+\226[\2764\221`\275\004\327h\275\300\0136\275\366g\221=\320b\004\274\206\341\265=\002\225\347=\355o$\276\305Q\031>\216\321\225\275\016\305\254\275\255\365\020>]\233Q>H\304;\276|\016k=\303\3540\276\331\323\336\275w3>>\356\251\203=\314\"o=(!\271\275\365\363I\276\374\206\007=\374\274\022=W;\'>0\004\323\274F8\326\275\200!X\274\310\017\375\274\243\010W> \373\225<\036+\217\275\371\352\t>d\325\035=t\275Q=\340\014x\274\337W?\276\312\341\303=\276\311G\276\020\261\315<\322\344\210=\200\331\277<\260\317q\274b\311\002\276&Y\214\275\275\357\331\275\300\351\r;]\314\025>\233\270\005>\376\216\264\275,\0134=\351\016=\276\271P6>\006\262\214=\033\027\032\276\030h\315\274\226_+\276\020\377\305<(\301\343<\241\333J>qI@>\304`\001\275\332\347\365=\304\037S=\"X\371\275\262\245\244=\210=\230\274\027\234=>\003q\030\276p?I<\260nL\276w\303W\276^\370\274=G\331J\276\350iL\275\230\020\327<2\'\367=\000\300v:A\365\034>\3539\024\276\211\2236>p\003\316\274\270v\232\274\231\330+>\306:\341=\364\252Q\276\032\263\227=c\206M>\000Z\261:\224,\010\276\246_,\276\"l\301=`\335\233<\004$\000\275\350\303.\275/M.>\211\322S>\2426P\276\016\362\327\275vv\213=\244\035\022\2752\273\313=\0146.\276\234<3\276G$\t>\0222)\2763o\r>\340\245K\274@T\254;\217\221\023>e\031B>\3003p\275$<b=\341\3056>\356A\240=\337\342\017>\350\027\233\274\340\344\310;`O,\275\345\334<>u\240T>\014t\002\275\020\212n<\265H8\276\226\306\276=$\266m\2759\010 >\354(\344\275\340\365\342<\335\204L>\234\374*=\220\264K\274G\202\353\275\\I%=\254\tT\276\220\326\347<\330\335\206\274\275\316>>@\255\325\273lh\030\276c\023\331\275\374\236N=L>5=\250\324\227\275\247\322\000>\222\245\356\2755\243!\276o\337\275\275\246I\277\275\310M\330<\375ZM>\n\343\303\275\344[l=N\271\311=N\001\344=6\t\346=\326~\273=\250\363\025\275\020\223\351<~XN\276\370_\021\276\377\300\006>\315\334C\276\\-\034\276lh\t=\000\241\265:\310\374\377<-\027(>\240ZQ<6\231\332=\224i\231\2756\342\322=@\0168\274\266\354;\276\004f[\275f<\377=\260\267\211<\245\035+>\005\007\346\275\241rC\276d\r\247\275\364\355J=\244\231\017\276\366\314\021\276\000S\017; \033\260\273[\352\024>L\205\n=\200#\247\275\215\311\302\275\300\255z<\324h\236\275\324\225\032\276\204\2561\275\274\265\n\276\\^P=\217\270\016>pk+<L\n%\275\010\256\021\276\341\003\331\275(\213\'\275o\230\317\275Fr+\276d\223\013=\031Z\017>\240\323(<d\032\030=\260\252\317\274\377\242\350\275j_\316=\216&\017\276%\242?>\212\021.\276 tq\275\226 \211\275\"$&\276\303\216\021>t\3377\275\254\331#=HB\n\276d\007\005\276c\241*>\266\237\212=93N>\300\304\263\275\356eD\276\026\017\256=\234ey\275JS\270\275\200\0263;`2u\274\206,\234=\300\215<\273\225\357X\276\0204\004\275\024\320\357\275\213W6>\0003B;\0004G\273\375\376\353\275\224\371d\275@\227S;(\354\020\275\"g\272=\304\252l=\034;C\276\337\tI>\324y\036=4\367M\275w\2227>\332+I\276j\204\232\275\274* \275M\376\014>\306\032\317=\262\352\271=\t\206\377\275\032=\'\276\371Z\001>UD\">\337>W>\224\3179\275\260\327\026\275\360\305\307\274fo\216=8\237\332\274\241\241\010\276(A\376<\014\356J\275#\346$\276\000\350\210\273\357\032\003>\3449\234\275\242\275\361\275\310\303\352\274\016\036\305=\376l\250\275\326q\000\276)UK>\006\035\236=t~d=\320\236\013\274\"\353\326=\341\252\034>\246\313\276=\323\'\t>\300#\246\275\014^_=ZL\257=\264\003b\275\373\263A>?m,\276\371\212.\276\272=\267=\212\311\321=n\360\210=\014\251p\275k\340\363\275Q!.\276w\tA\276\220\214\344<\024\362\016\276*\247/\2764\370)\276\245k0>r\236\247=1.\003\276\001\204X>\304\013\035=\200\201M\276\221\207%>\212\014\346\275\360\214\n\274\222\237\243=.\306<\276%9\t>\030\227\033\276\242\276\276=.\302\353=\245%\031>D\211P\275R\2640\276\320-\364<\340\310\356\273 \2526\276\002\326\r\276\343Q,\276w\005\\\2760G\010=\311sQ\276\253h0\276Q@5>BH\023\2768\205\275\274B\017[\276l\363q=\020p7\275$z5=p\370\023\275\202\373\207=\360Zh<C\346\020\276\025\233*>d\217|=J\252\344=\202^\324=v\244\220\275\344\001\034\275\200e\353<k\022B>\203uM\276Z\327\254=*\343?\276\010\023`\275\3117V\276\000\310\264\270\203\267%>t\242k= \301\033<He\016\276\022tV\276\374\232n=\010\2029\276\303\261J>\026\007\312=\376-\357=\214\305\236\275[@(>\205\203\037\276\300E\351<s\307A\276m\204N>Y~\371\275\324\244K= \'\033\275\331(\311\275]\036@>\330\007\365\275\245l\334\2750\035p\275\233\255\003\276\203\343\377\275\313h\r>M\234\001\276\371R\020>\353\001S>@\320U\273#\217T\276@\r9;\226\365\236\275\252\335\233=\315QU\276\324\204o=(\005N\275\256\324U\2761<\004>4\376\036\276\027A\027>\021\376-\276B\001\355=%\277\030\276\240w\267;\373\3442>H]7\275\2622\257\275>\317\267\275\353IQ\276\273\"\"\276\253$\036>\014<k\275\240\317\277<\336\227\261=\230\247\264\274\230\036\202<(\261\033\2767\006]\276lP\017\276c\232\r>\321\256G>\322\021\245\275\274w~\275\010\270\334\274\000\216\240\2737\3010>\242K\270=R\313\324=\2230\033>\224It=\034\217\312\275AG\\>\351\032\326\275k\272\323\275\350N\024\276\030b\227\274\210g\365\274\251c\322\275\350\266E\275\241\354J\276@\013\025\276\037WR>\rG#>\3058,\276N\362\300=\000\240b9I\345X>#AA>\342\\\234=\017\336<>%\220/>\343\221O>s\342*>0ug\275\260\\\371\274 \252\263\275\233\026\355\275\340\252^\275\320\274\207\275\000\302\021\276\300\214_\273+CG>\320\235\"\276v\263\266=\2364\303=\3603\367<O\026<\276\200e\271\272\316\372\204=\020\341>\276\344\241\211\275 >u\275\027\222E>6\360\324\275*\277+\276\240T\023\276:%W\276P+\370\274\316\020-\276\326\177\207\275\374l5\276\345\275H>\216n\t\276\032_\211\275p\235\207<r\350B\276\240\265\241<\231d\036>`\270\371<\260@X\274\0213\020>\260c\225\274\325C \276\370\323\250\274D\324N\276\034f\251\275+\304\007>QQF>wnX>\210\365B\276J\371\245\275V\036\320=8\255\371<YeO>\266\"M\276q\313\r\276\024\263:\275\260\336!<\"7\361=\352\236\330=\226\323\352\275\333\000\034\276\013\002\351\275\014\005B\276\352\315)\276\035\310,>\306\362P\276\307\026]\276\254\023\023\276\007\036\036>]\350\001>.\335\204=@ga\274\322\336\256=\247\372\276\275\210\325\245<\343\3577>-\000#\276\022)\233=\320d\344\275\323\242J>\276-\202\275\003\307.>\010\275\006\275,P\027\275i\230U>q\267\034>J\301\323=h\n\354\275\360c\267\275\202\"1\276\026\376\002\276\217\206\t>0;v<t\370\204\275\307\t\372\275:r\235\275\212\211\311=\345f\327\275\375\003I>\206y\242=\034\214C\276\372\224\337=`z\223\274\314!\301\275\005%\">\\yK=\346\255\200=\271\200\006\276a\205\001\276\366C\226=\362\254\221=%\303\037>\254\205w\275\267\242\001\276\213\233N>p\231\036<\330&\355\275n\005\270=\244\\\031\276 \260\334\274\220\322\013\274B\036\353=@Em;\224OK=\360X\003<)w\007>u\242(>\250\323\264\274\273GO>?t\\>\021\266\026\276\257H\010>\0003\027\275~\010\261=\212\301\225=0\324\242<\035\275\">\013s\013>\3572.>r\324\231=\212s\234=|\312>\275\212\271*\276\351\365+>\224\224\260\275\223\330O>\020\315\222<\270\230E\2763\025N>\302\325\343={\247\t\276\301\004A>5\233#\276\312\317\203\275\233\222\335\275Z\204\377=\306;\'\276\t-\034>Y[4>\364\342=\276BD\265=\000(\212;\010\352\007=\265W?\276\240\231\206<Tv\032=L\323\354\275\200\247\222\2750\257\245\275\373\033\353\275\362\373W\276\215\352\005>/RV>\234Y\022\276\202\270\203=xBV\275\216\304\322=\230\273;\275\371\211\027>\240\352\325\273q\356\351\275\375\253Z\276\202Y\343\275\251\024Y>4\220\314\275\025w\025>\337\341\\\276\343)\365\275P\035\240<\234\224\001=\017%\035\276G\025)>\344\211\r\276`>o\274=4\335\275)\tB\276\314\306^=\315a:>\3318W>jt\274=\327=&\276\210<\330\275\343\265\030>\212\224\317=\004p\017\276\357/1>\317\336\020>= 4>8\366>\275B\204\225=\274\310\340\275\324\353\327\275\212\026\350\275Bu\321=\000\244\333<G\235+\276hc\022\275\010\260\321\274_`W>0zx\274\215\301X>4\304\235\275\325\275/>G\216\303\275\037IS> \255\206\274\342\266P\276)M\034>=\347\004>\017\201\025>\265\2433>^\234%\276T\250p=\200\215G\276\240.\245\274P$\252<\240wO<\261\200$\276H/\205\275\311\274\005>\231\3304>\374Wz=^\252\257=\3728\236=$\343\235\275\217\260\001>\236\257\002\276\033~F>\324\274]=\300\r\204\273\367^\275\275\334\260f=\210\314(\276\2730\354\275\001\235\032>u\0250>\270\231\037\275\231\321%>\317\376\010\276\336cM\276r0\341=b\242\r\276\326\307\026\276\260\374\000\275\204\301\026\276\'\033<\276\243|O>\2008z\273\240\326\315\274\242;\256\275\306\253\237=\230\330\354<Hm\243\275?\226\362\275N\333\320=\337c\022>\277\3525>\326D\215=1\013&>\204\363\013=C\304B>5\303O>\202@\301=n\013\216=\'J\t\276hl>\275y\247\022\276\224\235q= \321=<\370L\240\275~,\206\275\206\317\321=\000d\325\273=\002\034>\200\277\020;\214\352\374\275wB\035>\210z\236\275\202\336\267\275\036T\027\276\361\241Q\276\232\363\367\275\216\035\226=\344 %\276 B+\274\232\256\363=O\347\001>\013[M\276@s\253\275\311i\r>\276#\357=09)<PL7<^\t\242=B\316\231=\200\327\246<Yj9>h\371\036\275\276\207\313=\026\335\335\275]\r\027>\344SU\275\336D\267=C\\\002>-\213\322\275\3406\363\273\376l\251=\037\356\345\275l\003\030\276\276\213\310=\212jC\276j\211\265=T&j=\224\276^= !\270\274\003\363\016>LS\n\275\030\031\346\274\320&\252<0\025\024\274\021\365>>0\247\r\276\365\360@>\200\214\366\275\320\375\233\275\366\377\016\276,\302B\275\352\n\202=\013\363\005>m\340\031>\254\003\025\276}N\323\275-&,>\340\273\266\275\304\352B=~0\220\275\177>\360\275z.\023\276\026%\277=]\245P>|\310\036\276\233\017\017>\324\352T\275\224\202b=\035[)>\014?C\276\364V#\275\352\253L\276\272\n\340=\340.\211\275\210\233#\275\213g\030>Vi\237=\220\3533\276\224\037\021=j\270\323\275\004b\273\275P\361\006\275xk\367\274!IH>\250y\032\276u|\"\276K\201\030>\230\313\240<U\221P>A\227J>\221O6>\374g\205\275`a\010=_!C>\000\340\022<\024\303%\275\272\323\250=\034w@=\342\360\264\275\200\343\231;\243\2538>F\333\262\275cT\005>j\177\316=\010\210\317\275\034\365\304\275\004\365 \276kL$>\304v\037=X\342`\275\345\232:\276\274\267,=\200\226\265\273\200l\225:Z\362\340=6\215\301=\322r9\276\226*\345=\272\"\002\276\271\275I\276\372\307\352\275L\313$=\014\205^\275 \315\270<\264\2252=\000\304%\273\201\211/\276\3573\036>\243\222\000>\350H\004\2760D\000\274(\374\365\274r\023\322=\327\037B\276\025\210S\276@c\332\274\270\024\207\274\224\361V\275\346\3530\276\270C\010\276\213g+>Vk\245={\202[>\235\253S\276be\222=h\200\272\274|E\023\276\254\037S=\246\271\361=\331\306\014>\236H\217=\237\006\007> \322\277\274\341\314?>FY\322=\243X\027>\000`~\273\201t\'>\304\357\r=m\225\004>cE:><c\206\2757\354A\276\226\204\243=\350\023.\276\273\343\">\240\360e<\000#\257<;\344\003>\023\016X>\252\034>\276\347\0304>LCm=|\376\"\276\303\002+\276o\321\031>\276j\372=\261]\001>\322/\223\275$\241\031={j\001>\337\200 \276\216\273\334=\231O\032>F\027\373=:\370\307=\n\373\323=\235\342O\276@\033P\273\020\320E\276\235\316#>;.7>|\3538\275wx[\276\320\3337\274\025\2624>qY\356\275\270X\331\274V\364\010\276\342l\213=\316\221\244\275\314\366R\275\267\235\034>h\022\332\275\002\323-\276`|\340<(Tl\275\216\023\321=\341\033\025> \327\201<@\357\346;\276\273\205\275\356\355\371=@\204\362\275\234pI=\266\372\315=\322\323\312=X\252*\276\030\247\231<P\035\367\275\250\217V\275\347\363I\276z\263\252\275x6]\276\246\263\344=h\211\022\275:\372R\276[\035\005\276\364\316.\276\325\3254>\326\2515\276\336\212\363=*\025+\276\010\272\302<\256\355\271=0w\276<y\300Q>(z\307<t\246h=6\266\263=x\237\347\274t\236y=4\220\020=\261\322\000>\250%\324\274\213\302\001>\255\315>>\302O\315\275\236m\026\2768\370F\276\274\nj=\r;\036>L\\\t=\025^\021>|\255m\275\317\032\027>\317\030/>\326\023G\276\360\033\230\275\006\031\255=\000\220\014<\240\0142<\362\205\274=\365\032J>\361\244\342\275]\2758\276\266\331\201=\260V\002<\2204\261\274\370I]\275\020\256\355\274p _\275\024\301*=:]\350=\350kq\275\002E\376=P3S\275|v<=\350\030L\276\000\372\373\274^\033\331=\240;\354\274\001\231\305\275d\tt\275r\017\350=D\335\033\276\272;\321=`{\215\275>\246\261=.j\225=\277\267!>K\3634>Xx\224\274\316g]\276\322\310\251=0F\016\276k\262\310\275\264|\013=T\273J=\304\234H=T\010D=\034Be=\022o\034\276)#[>t\230O=\344\033\\\275\252J\206=\030\332H\276\246\233\245=\230\'\361<\213wA>\273O)>Z\203\326=1\2548\276G\277\035>\211\311\'>\266\270\210\275\372\014\333=\300\371z\274J~\273=4\020v=\000\356Q\273|\276{=\377\253\331\275\345%>>\276\247\353=\274sH\275\260\306\004\275\017@\014>\006\264\036\276*^\325=\002\017\322\275`p\327\273^L4\276\200\276F\275\265j\016>\325f\'>k4W>\200\200\226\274qQ\340\275`\235\217\274\n\003\277=\034\n\027\276\217\235%\276\216\242\001\276\020+\025\276\016\342\261=\374\3621=\"o\360=H\332+\276>\356\332=\354\315)\275\254,.=G+\022>\376x\220\275\246F\305\275\376\372\312=&+\262\275>\203\256=\364\002M\276\3000\204;v<\266=\020\310R\274\224\3506\275\364\252\000\275\352\260\315\275hh\202\2742HX\276~\270\326=\302o\345=\325\025F\276\340\247\347\2750\232\300\274 \371\245\275\320\307=\275\007v\303\275\270\211\035\2758*\017\276\202.\024\276\331\0041\276"
      }
    }
  }
}
node {
  name: "dense_2/bias"
  op: "Const"
  attr {
    key: "dtype"
    value {
      type: DT_FLOAT
    }
  }
  attr {
    key: "value"
    value {
      tensor {
        dtype: DT_FLOAT
        tensor_shape {
          dim {
            size: 64
          }
        }
        tensor_content: "\000\000\000\000\000\000\000\000\000\000\000\000\000\000\000\000\000\000\000\000\000\000\000\000\000\000\000\000\000\000\000\000\000\000\000\000\000\000\000\000\000\000\000\000\000\000\000\000\000\000\000\000\000\000\000\000\000\000\000\000\000\000\000\000\000\000\000\000\000\000\000\000\000\000\000\000\000\000\000\000\000\000\000\000\000\000\000\000\000\000\000\000\000\000\000\000\000\000\000\000\000\000\000\000\000\000\000\000\000\000\000\000\000\000\000\000\000\000\000\000\000\000\000\000\000\000\000\000\000\000\000\000\000\000\000\000\000\000\000\000\000\000\000\000\000\000\000\000\000\000\000\000\000\000\000\000\000\000\000\000\000\000\000\000\000\000\000\000\000\000\000\000\000\000\000\000\000\000\000\000\000\000\000\000\000\000\000\000\000\000\000\000\000\000\000\000\000\000\000\000\000\000\000\000\000\000\000\000\000\000\000\000\000\000\000\000\000\000\000\000\000\000\000\000\000\000\000\000\000\000\000\000\000\000\000\000\000\000\000\000\000\000\000\000\000\000\000\000\000\000\000\000\000\000\000\000"
      }
    }
  }
}
node {
  name: "dense_input"
  op: "Placeholder"
  attr {
    key: "dtype"
    value {
      type: DT_FLOAT
    }
  }
  attr {
    key: "shape"
    value {
      shape {
        dim {
          size: -1
        }
        dim {
          size: 2
        }
      }
    }
  }
}
node {
  name: "dense/kernel"
  op: "Const"
  attr {
    key: "dtype"
    value {
      type: DT_FLOAT
    }
  }
  attr {
    key: "value"
    value {
      tensor {
        dtype: DT_FLOAT
        tensor_shape {
          dim {
            size: 2
          }
          dim {
            size: 64
          }
        }
        tensor_content: "\317,\222\276\267\376\213>\320\371\223>\352\020\267<\242\231\227\276\013\254}\276Q8s\275\246\273H>\250\271\273=~4\n\276\302Q\304\275\324fq\275\031{\204>\306\207?\276\337\253N>\335\016\003\2762/<\276R\357t\276\024)=\276\210\026Y\276\202\006\353=h\236\360;\204|\022<\tb\242>\261\316{\276y\300\227\2766\034\216>\345~\301>\230f\202\275U\243\034\276\361\013\320\275y\207T>\034\271\353;\272l\221>L6\270\275\250\243\260\275\026\235H\276\362\t\226\276\334H8\276\'\373d>\220\243\351\274\355m\265>W\206\301<\037\253\367\2750\332\027\275_w\247>F\341[=\332B >\026V(>\0172:>m\276@\276MY\202>\340\275\017\275_\301=>\360v\326\274\245K\271=\250\242;>\377\267o>}/\212\276LMn\276\344@W\275`\206\377\274\023fU>\304\304\217>\371\177\240>9\375\213\276\241\356\032><\372\327=\031\227\227>\357\252+>\\\244&>\016\350`\276p\022\002\276\206\261\205\276/Ev>\250\033P<\226&\236>\330f?\275\232\331\230\276\342\367e\276\271\372\021>\327\365\014>\027\244 >\004}\032\276\000c\337=\\\343p>e\253\225\276\331\317\271>\'9\211\276!\301\227>\354\334\353=\237\340\213\275\206\307t>S\241\334=\225N\262>\2029k>e\201\220>:$4\273\236Q\216\275i\270\004\273\326\371\177<\027\260\210\273\337\277Y\276\374\265\232\276\006\367\036\276\036n\263=\2006\300\2756\342\343=\213[u>\354\357\007>\033\304\202>\3405\204>\236\024\034>_%\246\275\000[V\273\270\226t>\327Y|\2763x\366<AR\227;b\325\247\273\217Uz\276\275\317T\276?Q\216\276\022\010^>@\343\377\274\255(\216\276\337=\217=b$\220="
      }
    }
  }
}
node {
  name: "dense/bias"
  op: "Const"
  attr {
    key: "dtype"
    value {
      type: DT_FLOAT
    }
  }
  attr {
    key: "value"
    value {
      tensor {
        dtype: DT_FLOAT
        tensor_shape {
          dim {
            size: 64
          }
        }
        tensor_content: "v\365\236;\324\373-\266i\331\251\266\300\016X\267hP\2336\324\353\373;\026\316\013\2745Q\301<\245\217\020=\000\000\000\000\212U\313=\026\313\256\274\200\224\307\267\000\000\000\000C\312\323=\000\000\000\000\330\3238=a\020\320=\252j\320\265\000\000\000\000.\207\243=\007<\226=\035\034\224\274\333PG7\000\000\000\000HQ\025\270sD\212\267M\214\235=\351\036\203=\234 `\270\261\337@=/\"\344\273\037\351k<\325\347 <\000\000\000\000a\224\255\273!@\303\274\007\216*\274\000\000\000\000Z\344\251=\000\000\000\0006\21637\217v\023\275\326\276\035<[z,=7`=\267\234\251,=\314\030a\2667N\177\266P\n\270=\000\000\000\000\306\013?=\000\000\000\000o4\320\272\377e\233\273^.2=\327\351==\216\300\2736\000\000\000\000K\024\202<\000\000\000\000\000\000\000\000\246\217\261=D\274t6"
      }
    }
  }
}
node {
  name: "dense/MatMul/ReadVariableOp"
  op: "Identity"
  input: "dense/kernel"
  attr {
    key: "T"
    value {
      type: DT_FLOAT
    }
  }
}
node {
  name: "dense/MatMul"
  op: "MatMul"
  input: "dense_input"
  input: "dense/MatMul/ReadVariableOp"
  attr {
    key: "T"
    value {
      type: DT_FLOAT
    }
  }
  attr {
    key: "transpose_a"
    value {
      b: false
    }
  }
  attr {
    key: "transpose_b"
    value {
      b: false
    }
  }
}
node {
  name: "dense/BiasAdd/ReadVariableOp"
  op: "Identity"
  input: "dense/bias"
  attr {
    key: "T"
    value {
      type: DT_FLOAT
    }
  }
}
node {
  name: "dense/BiasAdd"
  op: "BiasAdd"
  input: "dense/MatMul"
  input: "dense/BiasAdd/ReadVariableOp"
  attr {
    key: "T"
    value {
      type: DT_FLOAT
    }
  }
  attr {
    key: "data_format"
    value {
      s: "NHWC"
    }
  }
}
node {
  name: "dense/Relu"
  op: "Relu"
  input: "dense/BiasAdd"
  attr {
    key: "T"
    value {
      type: DT_FLOAT
    }
  }
}
node {
  name: "dense_1_1/kernel"
  op: "Const"
  attr {
    key: "dtype"
    value {
      type: DT_FLOAT
    }
  }
  attr {
    key: "value"
    value {
      tensor {
        dtype: DT_FLOAT
        tensor_shape {
          dim {
            size: 64
          }
          dim {
            size: 64
          }
        }
        tensor_content: "a\242U\276pj\022\275U\002\t\275?\316\313\275\233x\206=\312jG\276@\005>\275(l\250\275\330\367\377<\222\034l\276W@\206\275l\033:\2764\317\321=}\031\224\276aQ\267;\333\247!>\023\267W\274J\226\020\276\335\302\235=]\300@\276\212\206\013\276\266\270\262<B\321u\275y0\223=h|\203\275)\005\336\274,\240G=\303\241\037>\303\220=\276i02>\240\346 \275\001\034\004>\305@\370=\262\035\202>Hi0>l\2713>#\371\003\276\273\3358>&\003\325\274\245\264.>o\010\211=)f\371\274hF\231=B\033\320\275\306r\376\275\206\340\315=>\275O\275,\275\023<9\341m>\233:\212\275?>\036>,k\014=m,\341=I\263\253=N\356c\275\357\245\370=\353] >\335\210\227<V\261.\276\255 <>\204\253\035>w\360\030=.C\233=\300\001\306;\344\357\202\275\013Z.\276\210Ko\275\360R|=\314BY=\202\322\366=\375#\206\276\237\217#>\244 \333=o\026\206>\013\230B\276\233\250j\276@\363R=\251;\204>Y\303\216\271\202\301\212>^\222\273=\2416->\357\252,>m\033\274=~\222\025\276)l\233\275@\211+\276\246\'\360=\237#X\276\347\331f\275DA\r=\031\364@\276\2645\356\275\017\313\017>\374y\007\275sJS\276\\\010n>\347\211C>\242\244%>a\010\233\275\2200%\276h\374\366<\334\203\205\275|~\013\2758\006\025=\223\3345>\220\376\231\275`8\274\273\312=\373\275\300\311\351;\031\033\036>$\215z\276\353\275\251=2\275G\276<P\227\275\273\273\021>\260\037\337\274\270$\347=\001\372\r\276\032\0035\276\252\237)\276p\005\270\273\240\244\213;\300\265\222\275\033$U>Z+{=\347\353X\276\243\021\'>\'\2259\276\\\033\000\275\246]\205\275dL\244\275\3603I\275\260\036/<\005\302j\2747s9\276\202[G=9\r\240=\027\265\245\275\347\006\013\276.\271\376\275\364\337\002=\274+V>\346W\205\275\361T\262<Y\"<>\251iJ>\3033\350=\035g\266<\321\222\232\275\031\314N>\'\220\004>\2169\370=M\260\207\274\230\006\304\274&\210\235\275\310\025\036\276\267\347\031>\205|\007>e\342\010\276\253X\222=|-,>\247\014*\276\323\207u\276(D\377=\376\024>\276\001\374\003>h|\225=;\215\003>xH\210\275\213\236K\276^\301\341=~\260 \276\331\2201\276i\252\235=dj\320\275\322P9\275\225\r&\275UsE\276\007\257}\275n\264\275=\247\221S\276\006f\202<\353=\004<C\016\t\276\201\236 =\336\352 \276\342^\201>~\355o<-\344\027=\336\256\230\275M\367\021>\331Ij\275R8&\276g\037\276\274\356\326\n>\202\363<\276#\264\007><u\277\275\313YY\276|kX>\013#E\276\225\251$>\335\256>\276)\0251\276(\032\031\275O\307\224=\302\310F\276D-\330=\316\311_\274\206NT<\272\317#\276?),>\022\341l=\034\022\273\274\363 \326\275H\203\t\275\303\245O=\030\255\255\274rK\204=\341\266.\276\274\262L\276\216\217\271\275\021/\374=v\217^\275\227\373\324\275\350TY\276\274\201\217=\033\350\215\274\022P\007\2767tI\274\031{\016=\007XB\276\336@\232=\n/R=8\216&\275Q\215\215<0\334\004>\361>\324\275\314\031\264=\305L\235\275\202!\254=\331\245\014>\375\tm>{\362;=\231\275R\276\261IV=\233y9>\226_\t\276e\354\214=s\232B>\344\027\007>\341u\371\275\2648\263=l(\024\276h\030\'\275_\0139>\356\014\365\275\214\276\340=\303\260Y\274R\213\344\275\'l\013>\312\310#\276\024#j=\366\233L\274\376M\035=\223A\361\275_K\211\275r#$>\362[\225\275Dw\034>\320\326\316\275_\304\365\275S\\\256=\216\266\320\273\306\215\203\274\\\255|>\360=\006\276\314\244;\276#\203\014>\200\341\022\274\255\346\023\275\211}\022>\364m\020\276\365\177\315=(m;\275\245~M\276\216\223^=yO\267=1\203\254=m\276\020\276M\363\367\274\335\r&\276\362\226\334=\227ar>Q\265i>\366\265\374\275\225\240d>\nB\243\275\322g4\276\260\360\005\276\203\233\032\276\207S&=\007\026\365\273\034\244e\274V\220b>\234zG\2764\377N\276\022:\233\273\262\303!\276\334\311\303=\006|\210=\245\332\027>\317Y\300\275\264Q:\275\214\236e>\r\336\371=\',#>x\230\344<\236:#\276\267\022G\276P\367\374\274\226k\343=a^H\276z\2765\276P\375&\276n\203\"\276\340\n\313;\360C\024=\347y$\2768N\337\275\375K\215\276\3622`=u\313\024\275\257(\274\275\317\352\226\272\006\270\002>\325\273\260=.\325\000\276\004\236\t>\335\356k=\204\264\206\275\010\310\314=G\241\246<^M\200=\352\232\374=\010\221\270<[L\030>_\202\265<g\362L>\202\302\370=\313<\212\273\010\250\323=\034\312v>L\3339>\346S5\276<\203\033\276a@\001>%]5>\341l\225>\226v\260\275\350\027k<\351\204\010>\021(\033>\325\002\251\275\263_a\274\212\347\377=\036.\222=\022\377x=\243\252\263=\202#\274=\n\316\246=\372\2132>\017\341X>\274\207C>\270\211\217={VM>(\317&\276\220\370\334\274M:\204\275\202#\320=F\334e\276\255\204?\276\232\0107\276\004\334\325\275\365\303\022>\251\355\302=]\344M\276\272\362\206=\220#*\275\017<1\276P\000\020<FE<;\226\254\024>\337\256\010=\223\020g\274^\277g>]\235\037>\025vl=\364\034\364\275\236\333\307<W\362\277<\'{\023>\356`\321=8U\344=\005\027\335\275R6\"\276\361\302\337=\354.\272\275\361\374\205=\022\362\357=\236\300\202=\\l>=_83>(\302\374\274\203\233&>c&\343=\rbM=\367\251\217=\342\017\266\275\212\030\226\274D|\031=\271\211G\274\320\233\376\275(\372\353;|&\005>\307\261l\276\300\231(\273\242\316\250\275\346\345\276=\374MM>z\220\315\275\311\t\251;i\2770>\230|\333<\315\3622\275\216\220\271=v\240d=\337\357\325\2741\322d>\230B\247\275\345.\002>I\006[>\032\3346>\351O\325<\355\010\003\276\003-K>\215o\304\275=\267\r\275*\300\374=\3126\207\276K]\304=\301\304\261=pI\215\274\305\244\321=\260,\254\274\313\352\020\276\376B\255\275F7\321\275\352\331\253=]\232\366\275\225\320H>\231\232\037\276\207\362(=\025-W\276~\232\025\275D\275\030\276!\201\204>\027\007\036>\030\022A\276X\200#>\021\010\230\275T\000\210\275\025F!\275B&.\276\231nU\276\000\037\264\275\345~4>f6<\276\221\227\232\2750\t\336=\240\3730\275[^\374=h9\317=&\222q<D\325\035=M\363+>yn\r>\\\357\264<\244#\003\276\337N\216=\236M\376\275\256\366\202\274\373\230\364\275/fg>q\373\214\276\372\272\354\275\347\242\202\275Q#\001>^Jn\276\375D.\276\277:e>D\252\334\275\326\335\242;`\010\344\274ZOJ\275\216k6\276\251>\025\275\240\266\002\275\275\020Q>\n\037\\\276\273L\005>\214#\253\275Ly\036\276\353\245\017>\321\243L>\256\374\020=\023\010\326\275\313\277\372\275cF\'>\027\306=\276E1\275\275\036\277k\275\327\221\211\275\027Zt\276\216L\215>X\306:\276\321l.> \002\254\275\364\320\005>\342\021\227\275\220\217\260=\270\336;\275\231ED>n\266l>G\367\346=\350\005\210\274\201XP\276\266\207Z\276j]\235\275\263\335\370=\243\335)\276\241\244)\276\223\003\201\275\344}e>\345z\016\275\357\0033>\323/\210>}T\005\275\202\260\376=\"G\233=\320\272\267=\354\205\252\273\213\346\002=\2177\326\275\272t\326=\r\004\201\2746\206\005\276\313+7\276\307S\014=i-z>\023\356\205\275\206C\223=\266\274\002\276\023\316G=A\250&><\330\347=B|B\276\242\004\355=\341\317+\276\026\271\007\276s\216\327=\302+:\276J\336r=m\332=>\364\206N\275{D\t>\204z\026\276:\205\336=H\372\370<p\271\206\275\300\003\031\276\020\222\022\274T\340W\275\310\354\214<C\031L\276\0139\365\275\374\272\367\275/\340S\276\252\266\201=\224L\021\276\\\231q=\370\314\037\276\026\241\306\275\035+\036>\253}R>\340.\255;\004?\t\276\351\367\360\275}\373P>x0\246\274\3476R>\360\264\007\2750\3502\274\230\2535\276\207\202K>\260\234\032\276\224\2157\276\342Y\210=U\241->\327(\n><<\247\275\333\235T>\204\265#=\330\177\262<R\204\210=\001A*>\203\020\014>\324\244\245\275\202&5\276+\376\002>\216\024\036\276z\317\216=n=\203\275\221\257\340\275\306\247\323=\265\2252>\240\334\223\273\363\340R\276\200Y\037\274\036\023\274=utH>M<Z\276V\t#\276\377\202<>\375\255\026>\262\006\265=N\205\203\275P\253\361\275\2014\022>\251\004\007>\357\002/>\302F+\271\275Jf>\362U\025>\354i\002\275\273w =\334\3759\275\373\262O\275I\221\255=\211\252\371=g N>Ej\020<Y\227m\276\342\035\203>H\254)=0\300\227>W\376\347\275\310Q\221\275\352\201x\276(\377\333=@\000\247=\'7(\276\273\007C>\234a+\275\261s\001>\367aO>\300\234\241\274\022\363*>\33082\276T\337Y=\371:E>\366\336\341\275w\020\326\275xh\245=\\\023\241=\024\001~>`h\334<#t\314=-\333<\275? I>\006\373c>\343\211b\275\270\330-\275\n\205\006>@n\236\274+\316C>\222\234+\276\317:\035>*\332\367= %\271;\264\332\255\275\325\354|=k\337\366\273T!\337=|+\235=\210\253\037\275~\226\322\2732*\263=\021\314\030\276\264QG>\026o\354\273\251I9>\244\204z\275\200\303\242\2741I->/\201\304;\354\210\023=\200\017|\275L\033h=\000o,>P\026\305<\343\342?>O\016\022\276D\246\314\275\032\203\347\275\324\322\306=<\310W\275]}\305\275\227\324\241\274\316\243\307;\005\3776>\215\025\022>\010b\355\275\0061\020\276,u\007\275G\0273>.`G\276\366|\332=!\376)\276\"\231\204=C\0011>\354k\005\276]\2564>\334>b=\312T\035\276\341^\250\274\270}$\276\320\370F<\240\246\314;\260\205\007=\340\271\220\274om\264=NI\217\275\016\225,=}\'\005\275\241;D\276w\2151\276\264\270G\276W\037\031\276w\027\372=\355\177S=6^S>\320\230\005>\242}\346=Ol\321=\225\273K\2761\021I>\245\357-\276\214,\376<\366\314\237=\344Q\275\275w\323\301\275\250%T\275\325\003\010>\256\005\307\275\036\260\256\275\313]>\276X\240\342<\357\320\017>\2118G\276z\341\006\276\301\204\"\276\344\t\025=\323w\214=\240\'0\275\366V\037=\320\3100=]\210\024\276\010\261w\275\027\217\355=\216B@\276_\263L>\373\3464\275\354\216\264=|~$\276\031l\351=\212\254D\276v0\273=\345\332\325\2753w\367=\253d\026\276\311/,>\031\275N\275\'q\036\276\276v\213=\317\352\327=\314\233q\275\244\272m=\331=F=\244\216f=\037#\330=\330\266\334=J\203\205\275$\016y\276\256l%\276\350\207\357=\016\311B=\353u\006>7\347W=\336\226\333\275\020\247\322\274Z\340\034\276\324\010H=*dE>\n\240U>P\004/\2767\035\370\275\256\025\034\276\370gm>\n\350\271=\025N/\276\226\245->\236\331\336=j\256\212\275\244\0305\275\201,G>\2201\206>\013Jn=\200\340k>\320\211\347\274\3507\007=?\2254\276\246\377\262=\013\317\010>-8\002>@K\371\274\272\210\266=\332\025\352=\177\371\004\276\237\355F>\032\002\321=\342x\212=\252\3402\276{\3572>y\353\003>\321V2>I\rT>\245\323\026>\274-\030\276\020\201\336\275\317\036N>\0325\031\276x\024\013\275\204\316\267\275\330\3610\275\017CY>@\014\020<\337}\006>@\025\025\276\374M\322\275\277\341/>\314o&=\221\271X\276}w\n\276\036Y\232=\300|\365<t\025N=\327\211D>\000\326\2139\226\365\351=\003\226\036\276(M\177\275\030\265\262\275\322\254\322=\215\212W\276\'\314 >\275\241 >\310w\265\274mY\326\275\300\263\035<\310-\375\274\240\212\373<KOY\276}\005\006>\246n\216\275hnU\275\247\266\t>\2723\221=T\243\234\275 7|\275B\346\000\276$b1=/\372Y><8\035\276\204)\347\275,\262\212=bs\225=\253\364\221\276O\235o>\351\3624>\273SW>5\325\301\275\304c%=a\306L;\034\001\252;<\002\227=w\372\235;6\310\027\276\326,F\275\224\363\016\276(O\333=_\354:\276\363\334e>Kk\\\276\254\226)>e\021\357=\300\307/\275\363\034\216=m\032q<\264\342\037\276\365\355\033\275Q\364E>\023\013X>\177\360\313=\374\316A=\027\243\316=\274\362\204;\254\377\334\2755\357\t\276QC\177>\242\2325\273\330\346\304=\340k\275\275+\300\020=\252\201G=\027ci>\253\237\210=1O\206>#\321\">\274\276\000=d\032\210=>\273>\275^;\030>A\231*>\313M@\276\032\263\211\275{\257>\276hm\030>+j\211\273L\347x>\351\240\016>\036\373\353\275\t\300\211\274{\316:>\331\\O<\222\213\251=)r\032>\003\311\026>\312\370\275=L\0078=1\326L>\252\013W\276\274\006b\275\277\214!>\300\271\302;\030\007\246\275\002\351\362=]\320H>\215\035\307\275\350&\344\274H\034=\275\274B-\276\301\325G>\376\204\237\275\354YH\275\010Q\302<\264\rJ=:\216\250=?\2305>\300\234D\275J\342\274=H\320\312<r\363\310=\020\234M\276\350\234\230\274F\220=\276\364\335\003\276\341I\023>,Q\375\275\020-@\276%\034*>X\037,\276\010*\014\276\310\360]\275\353\306)>\374);=3C&>\310\273\315<Z&\274=Bm\254=&\244\277\275\2464\322=.k\016\276]\0216\276f\356L\276\242\"\272=\035\2522>\340\035\307\273\024\317\014\276\224\017\354\275\337\332\302\2757J\010>\244\236-\276\371\221\010>\310Z\375\2758\025\361\275D\005 =\220\271\021\274\357\311+>0\361\212\274V\231<\276\371X\n>c\224W\276\327\251+>\024\306n=\257\216Y>y\2579>\013}\211\275\240\213\360;P2\\\276\304\004^=TJO\275\303\034\256=\253\226\227=\260em\276\252\007&>\236V\024\276\316\302\243=\034JE\275\264\002j>\343\213n\276L\227\212\276\331\334!\276\254\226\235\274`\262\267=\221\217\r>F\206\254\274\036\260\207\275\'\201\361\2758i2\276\246\351T\276\254\004>\276\260\353\t\2758\270\037>\240D4>\311\234V\275^\275\257=\366$\345\274\214i\377=IT`><\007X=\010\334s\273{\304?>\016Q\274=\003\366\377\275\355\227\321\275\211\270;>cK&>~\271\033\276\326\n\020\276\005\365 \276n\265\216=7e|>\177\024\035>\273\310|\274\267\237\177\274p \000=\316\377-=\234\301\242=g\001Q\276\236L+\275KM\034>\252\332\265<\005\330A=~\246\366=)\2360>_KO\276\215\305I\276\312pU\276<\306e>\327W#>\313\257\376=\366J\276=\326\330H\276$\365<\275\034D\371\271g\373\r\276\336b\266=\315\017\003\276J6\023>\274p\361\275\332\257}<G-G\276\035\336\315=\014+\244=v\371`\276\342\273\257<\364\313L=S_O>f\333&>\223\364\323=\370\301A\276=\226\033>\320\350\237\274d\226=\276\030\214\377\275`v\322<h\273x=\330?\245\275\3303)\276\204F\346\273i\242K>\213;\206>\023K\207=N\336/\276\233k,\276\224\277\213>\025\302\220>\370\177R=_W\226>\203\n5>\22040>\216#\t\273\326S\026=A\362-\276\316E\213>~iv>\'\261\036>M\262d=(\334C>2\336\221>)\032\013>\014\212\037\276 \033V\275\363\363\307\275:7\227\275\300\r\320=N\305\'\276\201\221\206=,:n=\037M>\276|c\002=\210\266\244\275in\345\275\276\230+\276\017\204)>\335\300\023\276\235\233Z\275|G\257\275kK\220=\0038i\274\037\234\035>\2176\243\275k\037\230=\247\223\316\275>w\347<\207\360\022>\321\356\335\275?\315Y\276,\322z\276\346\027\342=-\257\332\2752\227\r>K\002T\275\362\271\231\275v\201\301=x\302\021\276\000#\230:\\\321>\275Ep\016\276\036\275\014\276\013\361[>\"\315.=\344\004}>\321\007\020\275\206\331\331=\034/M\276\2438\252\275\020\300\342\274\225\366,\275\263,\227>f\316\025\276\337\021\266=\251\272\206=\\?\r=\356E\376=\220+x\275\203+\"\276\3255E\276T\305\331<\010\000\020\276\246\237\022\276\217\331\335<@@\202\275I\203\265;\334m\216=1-\370\27505\300<\n3\253\275\321\313\332\275/U)\276:\\T>\025\006h\276\334O\177\275\200/\316<\214\332]\275\016A\272\275\225\304\350\275\344\3357=z\":\276)Q\023\276\351\303B>\355V\016>\014\334\016\276\036=\245=>\013\372=\360\225\371\274\240-\301\274\343XE>D\212L=` V<\227\232\">p#8\276\360\000}<\000.\307:\344\032\023\275\324\326%=\300\tW<\323==\276\340r\313<\275\363U>2\244]\276F\230J\276\036\327\017\276\222\010\374=\250\266\251\275\263W\033>\r\033$>\001\035$>P\212\232<\374\210F=\027O8>oL1>$j0=\231\255\001>m\316\031\276\210\236\360\274\226\254\272=\324ab=\254\225\023\276\315\330\014>\240~\321\275g\3443>\250)\217<z\203\n\276\000\277<\273\320U`<N\005\\\2769<\r>c-,>E&@>;\244A>q\277\006>\322\322\362=S18\276\036\252\324\275@4\232<\014\377\034=\307_H>\253\353\022\274z\001W\276\2358J=\374\253%>\205o\010>\036\217,\276~\273\r\275\257\247\036\276=\313l>@\204\034\276\211=r>\315\241\232\275\276L3>|>\031\276\025{0>6\327\320\275\220wY>\322\214\032>\224\247\003\276\034\235\022>\035S\017>@\247;>\260\344\356\274?*\245=e\377\275\275kr\036>\264\010\244\275L\203{=y\2314>\220\307*\275\206\2249\275\215;\036>,CX=\251[Z>\006\224\003=\216Z\002>\236\3026\275\237\033!\276\306,\201<W#\032>\3340\202\275\003\275\003\276\256\027V>t\210\001\276,*\216\275\336\257\205\275\366\264g>\036\007-\273\344<\241\274\215C!>\\\266S\276\024\025]>\027\210\033\276\236\260\036\276\2718P= \006T>L\3655=5$\025>p\360\227\274\355N\200>\320\0342\276AAj>\220\3274<\030\244@\275\366\n\177\275\300\274\003\273\001\251i=\177\301\n\276-u\002\276+\355\317\275\203\037x>\2005\345\273Q\216;>9\350c=Skw=\267\353]>\241\022o\275\323\337\207:M\267K>\321Iw\276?|\332=aG\">\354E\014>\036]\342=\360j\215=3>/>[\362>>5\260\024>\275\260\305\275\354\241z>\331\023\314\275\354\025s=\037p\005>\264\221\001\276\335\362<\276\031HH>\355\016\357=\363b\034>\355\272\032\276e;\353=mN\214=\242\372\206=D\221\316\275\324V*>D\234.<\265\266)>6\314\223=.\020\276=\004\357\255=\304\203X\275\212\002\314\275\027\371t=\265\226\363\275\332/\366=\000\0244\272\234\202e>o\204\333\275\305\301\026\276\315\357\236\274,\034c>^?\311=\310\353\022>i?E\276K\032\027=\210e\205\275\311q8>\310\217\364\274\271\303)>\212\260\202=\264\3643\275\212,\334=K\237J>\326\005$\276`\361\337<}x\203=\200\032\306\273\025\2643>\326\247\221=\372\367\030\276\257\255\n>@\330\021\276F\335\004\275P\217&\2767\275\351<W\325\036>\034p)>=E#=\337H\353\275\rr\034;\2233\313\275\272\002\330\275L\351\324=\206\364\"\276\356]\330=g\211\037> cN<\020\356+\275\203\031\374\275\302UD\276i\0043>\025\2378>k\234\306<\364,q=\204Jq=\246a\242=\324[Z=\332\016\215=\\\275\370\275dr\010=BO\"\275\210H\216=l\331<=\004xZ\276?\344*>\227\222H<T#\272<\020\344&\274\343\343&\276S\331\017>\324\362C>\000\376\204\271\226\212\211\275@\034\025\276\276\225`\275\n\037\324\275\334\036\013\276&\254\370=\346?F>]H\365\2752\313*\276\\\177\010\275\341\357S>\350\202*\274\304~V\275M\341\316=5!6\276\321)\330<$\204.\276\014\262h>@2\321\274\177\341\027\274\204\364]>\322g\337\275\200\247\t>S\036R=\260\200\354\274\211tr=\t\243f>\251B\376=\272\2145>\254\177\270\275\276#\342\273\237&\266=\363uf\275\345\356K\2753\031\037\276\220;^\274\201t\321<`v\034\275fz\313\2750,6\276\362\204\216\275\374\214 \275Y\017\204\275\311C\303=\347\223^=5\252\016\276\322\344\337;\017\345h\276L\364}=\212\223\237=\225\036\323=\325\225\361=\352\277g>\262\326\017=g\241=>x\017\002>\2643\317\275\223A\233=\313)\031=\264X\273=\307\225n\275\340\346<<\271b\004\276\345\227A\276\262%\221\275|\214k\276\222,`>@\341\014\275\266\213K>NK\241\275\200\307\377\274\033JG\276\227\203\257\275`\345s<\374\222Z\275\234\004I\276\344\324#= \355\202\274T\025S=\245\222\034>)\021\014>\020\232)\276\261\221\030>x\226\271<)\026\037>\344\3403\275S\332\027\276\313\245J>Xpt\275\0278.>\374\347^\275{\203S\276\374\322\255\275@F,;C\226N\276[\214D>\240`\302<hz\035\275@=b\273@\262\370;\'/\020\276\200\247\346\272\250\001\342\274\022\374\315=:z\250=\253\025$\276\371!?>\244{K\275\211\305\332\275\242\371\303=\000;3\275{\\*>?5\021\276\246~\357=\235\262\365\275\347\0166\276\220\336\032\2761J\025>\372^\204\275\236z\252\275\230\360)\276&\211\374=\\\227\006=\367\300Z\276X\0362\275\207_Y>p\261-\274HT\266\274\314\203;=,\177@\276\030Gk\275z\366\274=\276\304\n\2760\224b\274\300\350K\276\006d\356\275\000\265V;2\354\034\276P\326\000=\231o\036>\237}S\276\221\206C\273\345W\246=\266:\035\276y)0\276\237\300n\276\224\371\332\275\022\266&\276+\017\337\275\250\323d\275\003\314J\276K\333\303=b\374\246=\304,h>s\365\202\275\254\343\202>\264\021\210\275\023\335\001>`\317@\2762\237,>\265\2569\276\356\010E\276Tp6\275Q\354J>\334!\374\275\000\"k\273\301\377C>L[\316\275\274\234l=D\252(\276\330\250d>\335\0021>\243\033\037\275\rc\363\275\335\344;\276V\177,>\272+\276\275\367%\373=\367\026q\273>\325E\275\353\320\266=o=Y=\n)\326=\372\225\320\275\220\350m\274\310\016\347\275\347F\330\2755j\005\276ej\004\276\264\216\006\276\311vS=2 \345\275(\343\001>MXf\276\014$\004>#\251\000\276=p\317;\252\300\226\275>\301\305<*U\200=\364\306#\276\246]\003\276[\301\014>\024\362\032\275\032\227\254=\265\3670\275kC\373\275`\363C>x\tQ\276J\305-\276\004\225%\275\364\212\370=\340w\332=\271\310N\276`\243\014>~\215\333=?|1=\210o?>-\247M;P,\022>\312\342\314=\324\372X>J$\222=\"\342\001>\360\332j>\026\324D>\227\226\240\275&s\r\276\247\344X\274\236\3416\276r\237\311=\323[E>\331\010\\\276@\241\344\274<\3735\275\200vP\276\177\327\032\275a\rH\276\336\350\210\274\224\204\033\276\270c\264\274!\202\034\275\233\324\355=z\351>>6t\300\275\220B8>\376\351&\276!\220\251=X\370L\276\220\222\301\275\217\0309\276s\212\017\276\320\320\345\275E\0331>\32016>\300\336\246\275\310\366\026\276r\241\\\276L\212\016\274U\006D>\322\307\212=\337\024A\276\213\204*>IR\237\273\347\034g>9PA\276\257\0366>\340\\\365\275\365.\315\275b\262\225\274\357\254\230\275\242\335g=H\300\026\2761D-<\001\356->{JP=\005Wv>\307o.;:\237\022>\026tH\276\003\203E>M\254*\276[,Y=\272\250\345\274>\322\267\275l\322\322\274\324\"\224=\247\224\305\275`\314T>.K\000>\323\017\357;Se\033>\375\241\002\276\326\205\032\276Nf\335=\311X\232=\200\346/<\217B\025\276>\225\005\275?g?>%\251\023>i\005\006\276\220\305q>Xp\317<\352P\223=\301\177\311=L\365 \276\035ON\276\203\217\'\276\025\360d>Z\023M\276\336\301\325=\261\036(>\t\233\'\276\352_$>\202b<\276\033;8>\216\257\"\276.B\367=\024^&\276j\'\026>g\"\025\276\266\315U\273\215+6>\032\023M\275$\331n=\224\211\214=\231}\321\275>\013\007<p\230\003\275\014%(\276\' \031\276(K+\276\215h\226\274d\3240>,2\253\274\353\255V>\342}\351\275\006\r\005\276T\210\025\275sQl\276\271\365\322\274\002uL>\351WC>\216\0228\276\'}\225\275\262\033\304=\324\252o>]\263^\276\266\352\356==\215\317\273\253\366!\275\371\031>\276Swc\276\361,W\276//(\276[\323\035\275xS\227<\250\367Z\275o\203n>~2\236=\321MB>a\3362>\013m\247\275\336[\324<\264\254\\>\276\217\232;\314D_>\360\245\367<6Tp<\232X\n>;\027_\275\253\355\270<6\316\367\275\222m)\276\326d\034\276,\237r=ul\345\274\207AI;\262+u\274O\367\223>\036\262\033\276s\027\331=\031n,>\333\343\370\274\211\373\025\274\227\343\232\275<\321\032\276o\014\376\275\303\262*\276U;\024>\347\240\241\275\366\321s\275\205\332L\276\2358\356\275\321\317K<>\254\372=|\t\315<t\3317=\30570>\302\330\372=\312}5\276\255\\?>\252\n\216=\357\222K>\"`7\276\367\333D\276Y\211\333\275\316\013 >\036\212B>\222\271b\275K\236\205=\323\032!\276Nm\010=I\362\300<\243\206\\=p\215\356\275m\207\253=\227\006#>\316#B\276\341Y\t\276\300\017i\274\322\261\354\275\000\344\035>\361\361[>\013;\264=\311\\\031\276=\n\202=\020\016S>E3E\276\266YN\276&\261f\276\376\004#\276\031{\002\276M\334\342\273\316\310\272\275\013V\365=\"\205)\275P\244\024<%\207\027\276M\260T\276\034\343\325<\2734\037=\303>\025>\327\022(\276H\270\327\274x\210\026\275Jp\225=\244\303\371<E\030\253=\377\343\213<\036\273\213=\240\313\251=\215^\'\276\261P\032\276_\361*\276\250^=>\016\254T\276\022H\260\275\013\307z=\002#\007\276\277s$>`{`>6x%>\227\340\377\275\372\227\230=\031<\342\275\302\211\246\275\014\004\000\276\335\371O\276\322\344M>J2\265=\246\3629\276\266\037\203>\316t\207=b\226\003<\204\267k\276\177\222\020\276\037\252\023>\372\247\235\275\254\224\201\274Q\253\252=\351|N\276\260\2518\276|\020\034>q(\274\275\277\337&>\327\017a<xO\\\276v#\017\276O{A\275\255\332_>\351M2\276\23103=@\0264>\020\3011\276 \013j\274\351!U><w(>\331F \275\223\'\022>\254\233\037\276\240\350(\274\310\256\250\275\000a\374\272\324Y\r>\241z2\276\267\377\204>U4~>\\\005\n\276\204\2671\276\241\2555\275\366\225_;\014$\274\275\363\317\036>\251\337\'>k\346%>\342OK\276\350}\367\275\214\217)>H\235\n\276fm\257=8\300\316<\0345.=\252 \252=QE\026>I>\001>\037\001D>\357M]>\372\327N\273\036\346\267=\317<\032=\243\026(=X\237\212\275\366\237h\275\007\241\306\274\356\251f\275\226&\257=\022v\234=\005\351\005>\271!\320\274\014\364\001>t\236A\276\005\315\002>\334%\236=\335\330\200\275Z.\207\275\024~|=\3365L\276\226f)\276\205\224T\276\364\350\307\275\006!\204=u\013?>y\216Q\275\257(\253\275\017\t\360\275\032\370\311=\3302\245\275n\246`\276\224\202q=P\257&>m\016-\276\300\361I>\n\235\354;\370\305\033\276z]\306=Z\251C\276\004\030\007<\nUp\274\031\274>>\270\374\262\275:\274\005>j\366\n\276\203\222f>4\273\367\275\234?\376=\224cP\276\333\261\335=yL\330\275\377\3452\276n}\357=\230$\337\275\204\023\225\275-\025\021\276 \201\013\274~\224\374=\214\026\224\275-a[>\205p\n>\006\227B\276\212g:=\327\264&>\2221\005>\002\221\243\275\317a\"\276\2467\351\275\252\200\354<<\351\253;\340fJ>\200^2\273B]\260=Y\303\351=\255\310M>\350\365\t\276\353K\020\2765\275\242=\207\003\000\276I$u<!\257\243=\304\010\337\275r\347\246=g\211<\276\240K\245\275[\364U>\237>\r>\370\251\036\276\030\003\302:L\325H\276\262\r\230<x/\">\340 3\276\352\262\014\276\360}\234=\321>3\276g\377x>\251\000\033\276~\353\031=\214\300\234=\303U<\276\336v\000\276@\226\244;\250\324\022=j\010\253=\213e\251=\322\375-=\303\236\204> \340\277\273[s\007>\002&H\276\362G\031;`\254\033\276\275(E>\322\363\352=\322\245$\275\020]\020\276\237\211C<3\031a\276\327\2530\276R\373\262=\375\014\026\276\007\2375\276\243 5\276\010|Y\276%*\007<\026\3310\276\251\266\375\275K\230 >\220\361\036\274c8x>\233\212\375=$\006<\276~\302\036\275R\t\332\275\2324\217\274%\203\367\275\353sO\274\"\215\346\275WO\"=\326\261y\275d^$>\202\r\036=\007\232\267=\374\202k>Fm\253=\317n\016\276\032\215:>>\303\242\275\263\204\033>\316\223\235=0\205\257<+\356\001\276\3364-\276\201\347H=\200\330A\276\020B\323=\352\271\236\275VO\034>p\362\037\275\016\230;>r\337B\276\335\2012\276\025f\265=c\227\003>\374\322\361\275r\037\267\274G%\354\275\242/\203>\265\024\241=\322\002\376\275\315\315\270=L\203\001=<\002z>\306g\253=\tw\217<\002\035\260=*\256\275=fx,\276Z:3\276\026\235\230\275~l\\>L\254\027\275\'\303\356=\030\010\344\275\r#$\276I\341L>\270\014\206\275Q\t<\276Z\204O\276\227\307D>\353\010\002>\\\375\313\275r\"\305=\234g\006\276\267\t5\276x\253\350\275\231NF>\033\316/>\230\037\346<\323\364T\276\205@\036\276\374\315\'=\325\373\"\276o\251\342\275\360M\341\274d\036n=\235\"+\276U8#\276\352\301\364=\260\016;\274\214\030\266\275\350\316\230\274\330\271\t\276\340>\343\275\r(\016\276\200*T<\300\022\221\274\'T\351\275\240\334\362<\201iT\276p\346[\2742g\271\275\362\371\305\275\343\246&>Ga5>\213\023X>\370\226.\275w\341\031\276q{\'>0\022M\275f;\020\276ebH>\244\021\020=~\034\240=\240l\n\275\252 \222=\307\007-\276x\n\262<\315\034\372\275\020\252V\276(Q\323\274\254\315;\276\210\320\343<\376~\270=v\335\240=V\303\220=\237\307C>y\326\020>0{\252\275\251e\001\276\332\311R\276\2747\252=[\264\241=t\3148>N\324\345\275P\331\336=\036\373\212=\315\3624\276\002\274\244=\316T}\275\277=\247=Z\304\247\275b}\026\276\305\255\025\276\240,\005\276>T\324;j\222\355<W\330\261\275c|\r>vS\035>\327\361\201\275U\253\277=\244\345Q\276\021\306W>`\210\030\275\256\336\031\276\240\220\350;\320:@\275\342\236\374=Ar\003>\216\335Q\275(\027$=\251\324\332=\322\275K\276\244\247\226<b\246-\276|~\276\275,\'\243\275-\370\241=\251AO\276\355\027[>\203)b\275zn\027\276m\343\001>(U\362\275\353\220H>\032\314\216\272\"\267\017\276\254\245\037\276\327\037W\276\035\240^\275T\037\007\276\214\307\020\275\024=\013\274\312\017R\276|\241,\275\215@\363<\304\023\230\275<\337\\\276\260\264\025>\303d3\276\352z\010\276\240\\|<\000\024\3109H\307\362\274,\324\360=\362f\356\275?\220R>\221\033\024\276+p\'=\260=B\276\367%\357\2756\274B=B\306/\276\356\253H\275&\260\244=\216\373\355=1\352\321\272P\361\244=#\274\026>\362d\347=\017\036\026>\206\311-\276\310RD>\327}\014>E\220$>X\031\313\274<\274(\276\017\036C\276\325Q\345\275*\263\335=\367\217.\276\234\357\037\276q\034W>\"[S<\326\022\267\274\212(\002\276\262R;>\234\006\264=\007\357&\276\233M\031\276\245\251\312\274\351;d\275\233\3552\275\226\037\315\273\274\307\002\275|\322i\275*\343D<`\263\232;\250\325\035\276\221\004\206\275\245$$\276\276\270\242\275\250\367\241<\017\001\005>\340s\315\274\025\314\026>\357\n*\276\014\260E\276\334w@=\356\273\273\275\006\246\267=\357AZ\276Z\"%\276U\232\356\275z\377\036\276\300{\177<1\201\021\276!\3565>\361m^>\364\245M>\202\362!=\222\351\334\275\251}Y=\000\225\244\275z\204\017>\311\366:\276\017\010;>\326\376\260=\006\346w=\237\315Q>\336\227\034>\244<\021\275\220\035%\276J`C\276\215\006\226\275\014Q->FK\241\275{\177\246\275_t\261\275\006\026\301=\225\037Z>\235\3175>\222\200\342=\334\332\017=\365M)>`\002\346<\264p\231\275\356\027p=o5N\276\262l\246\275\253y\201\275\251\243\227= \256\214\273H\3110\276\231\336\233\274w\035\250\275\272\266*\276{H_>E\244G>\013\201H>\232\243+\276\232\034\216\275\230\226\212\273\220\337\372< \003\035\275\240\3535>5).>\216\247\276<\350\312\356<^\353\344\274\016\017\000>\352\217\213=\002\364\032\276d&\025\276\034I`\275\"\361\333=\303\001\277=\326Y\306\275\352]>\276\0138*>^\'\216=(\027\333\274\024\2563\275\342\356\301=\234\245z\275\212Z\326=\365\266\025>\016\225\244=\362\244\035\276XE\336<z\211\223=v\233L\276\355\2737> c\270\273;-\016>xo\016\276\000\320\3148\345*G>\025\274\027>|nB\276\206\316\320=S\'&\276\347X->*\367\240\275\236$\225=\002\021\213\275,\232\t\275b\377\250=\300u\255\275\301\356\014>\355*J>\\58\275&\234\365=\314+\026=\276\272\303=\035\005@>\267\221/\276\300\036\227\274\003\2020> \364\326<~_\236=\\9u=\262\316\366=\213\2602\276_q\000> \267!\2760\035\371\275\310\340\220\275\223=,\2764~9\276\360@\265\275\307\001)>\253`?\276\026<\263=\000\372\304\273\307\221;>\264\3726=\260\245\025\276a#\375\275\036H\333\275\200\267\323\272r(\242=h\027\222<\304\370\t\276\321\256^<\223\204,\276\263\273d\275\230a\351=f\315\r\276\024?\t\275\267Y\027\275t\320Y\276]L\267\274\326\317\275<\031J\211>\334\350\005\276\211\032\367=\356\222\213>\356\3567\276\230QY=\313\374\336\275\270\274S>>\301\031\276\330V8=\264\005\337=\323\343Y=\326\370\321<\233\245\013>\350\334.\276c|[\275\350\253\220<\253\265K\276m\216\031>@C\361;\032\032;>\274\240\346\275I\224\207>A\027\217>6\274\201>\'Su>\204\316\001<\310\003\227\275\026\360\026\276[j\202\275\336\233\006>]\270\276\275\036i\351\274\220\036<\276\023\026\017=7&$=\227*>>\2328\316=\007\215D>\234;?\276\033e\353\275\021\375\003\276\364\305\365=]?\210>\247|v=\335\325\177\276hi\311\274T21>\356\305\201=\322\243\024>\312\371\235\275o\212\221>\021\020)\276\010\264S\275xK\212\275W\035]>L\204+\276\300}R\273!\2372\276\356\253\001\276\320\243\036\276bS\327=\020\371[<r\277\255=\2759*>\220\262\207\274y\031\005>\316\222\207= \3279<\006\'\300=`\000\240\273\211\207\022>\370.\333<V5\200\275\372\367D\276t\303\037\275.\"\344\2750\325\001\275Ln8\275\337\262\036>Q\375\303\275P\263H<\216\256\356=9\037\313\275\264\317b=b\036\305=\334\261\023\275\241\013\342\275\206\023\360=|\033u=\356c\207=\251\217\010>\223\031Z>\246\327\006\276\310\230\017\275&\325\272\275 \272D\276\312F1\276\244\t\010\276\362{\336\275\032\216\267\275\346\310\233\275P\200=\275(\211\037\275\225\033&>\200\313U<\270\322\242\275\232\234\265\275M\177?>\000\204w\271\355?\300\275\2573U>\031\330#>`\360\002\275\031t\025>\240\324K\275%5\r>P\220\326<\370p\237\274\205\2348>\207\315\"\276*\234>>]c\003\276\260\023(\276\31531\2764\266G=\367s\225<\350\\\261\275\257\357\034\2763\004\'>\336K\033\276e\375p>\2448\373=\245p6>\025\371+\276\2200A=\254HP>\2043\033\2763rr>\365~\316=`J\350=I\377%\276\370\325\372\275\tD\320=\354\327%\275\236\001N\276\"9\'\2768\336\027\276\014(U\275\307\345?\276\304\020\014\276\257\'\233\274\220#\347\275\021\231j\276\210\306\274=\332\375\261=\277\021\343\275\377\\X\275\331\345\r\276_\n\260\275@v\203\275\335\316>\276\236W\271\275U\362Z=\3369\r>5\336\227<\236\274)>\357\324h\274]h\003>\202X\"\275pHV\274\n\0201\275\337\300\332=\374z\"\273\000L0;8%\237\273|\250C\276i\233\022>+\036\246=^\277\223=\023MT\276\257\264%\27669\307\275\262\337\215=\200\247/\276\211\220\034>xQV\275j\350L\276\240?\227=\276J\200\275\361\357\364=\313\330\266=~;\023>\227\363F\276T\001\347\275S\234\320<H\3667\276\265\212\017\276.\035#>\013\200@\276\211\246\237=\017\240\272=\234\213\017\276^\255K\275L}\"=\332eZ\276\300y\024\273LrQ>\302\240\252=\334\252$=\321\354\305\275\000@\307;M\356\"\276\014gO\275fm\013\276\025\205\217\275S\0333\276\221\267/>\324\016\214\275\307\231N>*\255\232\274\232K\337=\027\355^>\345)\027>\307Uc>\001\3479\276\022\325\320=X\036\205\275\366\362\214=\246@\210\275\330YF\276\205\030\310=\027\342U\276e\263Z\276\251%\\>\215\000\340=XM@\276\000\255\327<\330\371\333\275\252u\307=7\313\016\276N\256\217\275>\372\256\275\253Y=\275\031\302%>\302/\310\275\221\nS\275\251\016\020>\030G3=\031k\341\274\342\362\374=\037\202\364\275\340=R\276\262\367\213=t/\013\276\261\306\241<\026\315\371\274\202m\327\275\030\034\230<\222\262\306=\261\007\373\275CMP\276\007\036\037=\263ph<\363\347\346\274i\335V>\311X\250\2736\234Y\275\"\231\327\275\374RP<\372\003%\276\277\333\033\276\263\371G>y`>>a8V\275z\224S\276\362\350\265<\260\343(>c\240I>\000\276\300\273\326\003\n>\241\372\266\275_\265\262<\210I&\275\377-\356\275\031s,>_\n\202=:\236\002\275\323j~=\240\017/\275\346&\325=M.X>\\\2079\276{v\034\276\343\324\">6Y\177>v\310\246\275/@U\276MoC>\004\314$>\243b\223=\200=E\276\234GO=\221Y$\275ZB\224=\237Q\373=\310UL>4\262/=\334\240\353\275\245d%>Ai\'>$w\372\275\262q\235=\317\035\210\275\202Q\353<\275h\364\275\031S\323=I|G>\211:\000<\272\227\300\275\370\261\000\276\034\325\213=\241!C\274\320(\013<\233-\214>\370>v\275agr>\2237\034=\324,\013\276~\n3\276\260\356q\275\344\000 =\334\336\035\276\316\333\233=\377\321\024>\366nk=\271\303\364\275n\304\002\276Q\004+\276\377\237(\276\2566\001>\311!\231=D)\023\276)<\354\274\242\316\230=\022\013\303=\241\326\213\274\200c\200\275\217z\377=\023\262\034\275c\261\320\2740`\006\276\226\235\322\275\274\210D\276>\211\t>j`\311\275\326#\337<t\212G>\273\261v>\0254\212<\264\023M\275!\246\230=;\035\376\275\352\314\203>%\301N>v\266\026\276h@l\275\320p\235\275\360R\022\276\241\356:\276-\373\025\2766\323\027\276 5\241;0&Y\274Ea\367\275rG \276WX>>^>g\272\360F]\276!\354P>P\252\317=\024\366(\275\273\311\240=\035\232\006\276\211be\276;\024\305=%i\370<T\014\025>\353\250\272\274\300\027:=7\002\033\276\335\233\212\275=\336\013=7\351\356\275\313\352Q>DL\344=\213\271v\275Q\035\240=\323\330\345\275\375\242\332\274\342\251\222=\226e\017\276nQ\207\275F!\024\276\360\341\216\275C\216x=\321iK<\024v\001\276jC\006\276\372]\n\276/\267\234\274\314\317\013=Ox\245\273\302\215\300<R\035\362=\023\331\007>\340E >\320\2658\276\336G^\276\266}\254=_\340\306\274\351Ht\275\343x\037\276\031\332\204<\242\226\306=\326\203.\276\226m\251=1._\276\030\354-\276\220K\034\275\275w\033>\244\210M\276\'\377+\276\257\001\360\274\222\020\227\275P[\014>4\246\037\276\036\217\025\276\0164\277\274\230S\230\274\256\026/\273u\306\026\276\221X:\276\332\203&\276\013&\307=K.Z\276\351m\200>\351\331M\275M\010&>\227)\005>\307\224~=\001\231&\276\004\215L>Ich\275H$\217>\\l\271\275\215\231n=q[?\276\014.\004>QiU>\210\300$\276\002\262\356\274\356s\354=*\363\030\276u\327>\276`\346Y\276`\n\000=&\021\207\275\004\035\217<8\021\251=\024\020d\276\305C1\275\355\375\030>\037\'4\276\213\255\307\274\246EU\276\315d0\275\243\231\001=\2604\004>;h\274<\016\3100\275\362\371\265=Q\314\306=j\023&>#\016j>\351\366_>R\247\207\275\017.6=j\364\010\276\rlR\273dE\247\275C\211\010>Mb\303\275\251#\256=\360\247?\276\030\002\253\273\371{\000>Wy\331=\262~@\276D\000Y<L\331/\276\206C\252=\004\037\304=\365|\355\275.\216\257<\256\356\034\274\253\331C\276_\031\006>\275\317\256\275\216\346P\276\346W\034\276\271P\004>\030\240\036>\214\216H\276W\337\024\276[Y\240\2755\332\024>\031\263\335\275\177\364&>\337\366*\276mx)=\357\207i\274s\235\220<b\010T\276r\236[=!a@\276\214h}=\r\321N=\n\315\222=\0221\202\275\354[c\2731\010\374\275D=\323\275\230\233\034>\021B\020>b\307\n>G\377]\276\000\233V=\324\363\333\273X8M\275\177G9\274\017Y\201=o\214\003\276[+\335=\376\332\031>\177\204\r>E\303\253\275W@\233<\034q=\274\031\376\036\276\214\231(><\257Q<PrW\274\232\027F>p\353v<\211\001i\276\247\371\211\275\333`\202<\376)P\276Po\334\272\320\367\350\274k:\317\275/\261\223=o\3038\276x*\257\275\330\320t\275\3761\022\276^\2406\276\226h\367\275\374\231k=\345\260G>T\030\272\275\034k\306\274&\247\250=\205+\375=\356\264v=(\257\327=\366\361\256\275\367\3577\276\347\211\237\274\301\347\300=2\251L>\240J\001\276\025P\371\274l]J=\024/\226\275\333\361\026\274IO\325\275d\363\227\275\013|\010\275\264\014Q\276\177\033\352\274,\236\034=\216\213\007\276\205\326\311;V\350\036\276pV\035\276\2454b\276\245\303B>\'\231M>\n\271\031\276\334\377L\276\026\336\037>nB\331=\303\306\307\275n\223\021>s\233\372\275\214\210 >\370\325\032\276\204\252\014=\354\240@\276O\377:\276\314#\272\275\'zU>\314\0332<i\361\317=T\274_\275}\237\377\275\370\335~\275Gn\226\274\230\233\263\274\026\342i>@\355\221;3l&>\216\177\274=\030?f>Cm\r\2763H\343\275\254P|=\321\365M\276\317T\343=\241\331\004\276\356\224\352=d$P>\356\344b\276@ \230;u\215T\275\352m\367=\020\207\207>\014\312L=\222;+>X\223\270\275\204\005\205\276*7G>\323p\304\275\2377W>\r\207\230=\357\377X\274\030c\366<\300\000\201>pFK>\303>(\275D\337\373<\336\nk\276\344\322\270\275\t\"M>v\264\355=\300\331\016\273\\A\370=v\240\246\275\305U\022\276\332: >\006\244\326\275i\307\023\276\347\007Q>\021l&>\324\265\000=\326Z:\276\267\005T>\243^Y\276\266W\024>\236v\277\275\004\007q>\302N\263\275#k\271=\005\370\035\276\226\334%\276=\252\257=F4_\2762\335\005<\332G\333=u\251\360\275\221\376\016>\234\024\243<X:\'>\320\235T\272\254P?\276\t!\236=\321(]\276Hh\346=\305\250W>@\315R>\027\201\t\276Q\301@\276\370\273/\275\276\302\304=\244\035\001=G\213[> \341\256;\264\337\240\275@!\216\273\341S\314\275\200\024\354;P\372Z\275\364\222M=\357\312)>\220\302\002\276;\270\346\275\276!V\276\225\347W\276\2400\300;WD\013>\242k\217\275bL\326\275\000\014\236\271;\3564\276\331\2047>W\250*>\263\2108>\317\3610>\037\275U>\322\032\246\275\243+\t>\277\213\032>&\357X\276X\253&\275L\375/\275\275\203I\276\312\322\377=f\273\205=H\331\242<\272\222\220=V8\220=\317\3735\276\312\333\322=\300\235T;@\337\313<\004\253\030\275BP\310\275fZ\337=\217\257\324\275\001.\023\276\225H%>\350\002\343\275\370Ci\275\373\t\032>\243\320\320\275\n\203\336=l\006f=\341\014A>\000le;\214a\177=\0322\371=8\210\274\275@7\034;\340\274\253<\024\215 \276\317\233S>\216\340\277\275 >\004\276\320\316:>\306D\002\273\210\264:\276s\321\r\276pQ\340=\253\037\">l\366i>\375\025\263=c\343\335=z`W=\26781>\366\nN>\022\202p=fN\027\275c\364\016>O[\334=(@3>\320\225\206\273\337\027e>\r\0131\276\030\357e>\357\221J>\364\234>\275y\227\325\275\030\337:\276>\245\240=\207\216)=\314\275I\275Xa\335\274\364\213\030\276t\023K\276b\303\027>|\277d\276\315h\027\276\003\215\251=\330\354!\275\252or>\000\324h\274*\235\002<\345\264\255\275\363\204\236\275\241w\030\276_\350\007=\034\311\260\275!\026D>>h\361=U\266\024>\276\316B>\024\217V=jX\005=\030\307\265<\211\265\313\275\365\2153=\310\325\020>\364\306\245\275\230\346G>#\275&>.\306\234<\026\237\037\274\0066+=z\303\004\276:\313\213\275\346\373\223\275\2203F<\250\014\362<\000R\202\274\034\310-\275L\244e\275`\213^\275\377\010\030>w\320\023>g\037[\276kp\321\275\360 +\276s\234\032>\260\256\220\275R\r\251\275\371\n->\300\306\367\273\364\270a=\337N->\371\2503>X\357J\275\347\215\003>n\\\262\275\222\000\251\275\262\007\225\275A/8>\335FJ\276\022\210\"\276\007 3>\276m\344=\202P\261\275\261s<>\320\330\326\275N!\247\275\023yV>\354\004\013=\263\250\017>\356\356\017\276{\334N>\300Db<\260\0144\275Z@\272=\365\036\304\275nB]\276 \324\373\274iU\007>X\274\325<n\230\326=\354Lm\275\205R1>c\r8>\027\006\327\275\236\216Q\276 %(<\010cS\2767\234K>$,M\2765\377\300\275\000\204\r\272d\336]=\200WO\273\216l)\276D\177\227\275\250m\354<\210\014\201=\246\365\344=\264$\300\275+[2>\001`->\220\2204<\336\373p\275\235^\\>\356_\254\275\010]7\27678\317\275\032\'W>\364\207\014\276~\037?<\372\013\001\276\365]\000\275\206\361\230\275C\362(>\376\356O\2751`T>\"G\337=\2570P\2756O4\276|\233\375=u\366\027>m\271\300\275\340W\263\2758O\275\274\367{\224\275E\230\004>-\032\037>\301+\371\275\313\260/\275?*\021\276\332\013\027>A\317\024<A\313\340<o\354/\276\021\026\"\276\344\270I>J\"\016>\'\036Q\276\315\0056\276\300\325j;\347\370o\276y}*\276b\352\022=\253 \302\275\037\230\014\276IW\216<\257\245&\276\330\307\230\275\347S,\276\212@\227=\340\223\207\274\356 \207\273;\034\332\275\313\025!\275\032\354\352=\243\350\203>\306\3651>\205\027z>7\350\302\275xK\221<\254\327Q=\262r\304=x\214\373\275PK\304\275\364\016{=\025R@>\227\220\r\276\363q\305\275\312\240\332=\305\371)>\302#\352=\252 \315\275\351\006\022>{\231\032>=?%\276W\237\033>5C\034\276\222\375\372=\254\376\351=\t<7\276\231\374\336=\260\025\201\274\227\226B>)\372M\276\034\214]=xOV\275%\006#>\340\036g<Vm\024\276\353\254D\276\255\336\036\276\020\003\201=\024\031\324\275F\251%\276y\025\351\275\352\202\302=}\333<>\202JZ\276\217\027\027\276!\020\035=\0313\033>\032\302\367\273G\251\'>x}]\276L\016K=yB\010><\354c\276\304re=\\\346b\275\344x.>\322\366\007\276}\276G><\274`\275\020\350w\274\375x\354\275\336->\275\314\356\026=\231\032\373=6b#\276\336\335?>/M\254=\251\346Z>\330B\252<(\213*\275\342\340\005=\244:\032\2754\352\327\275\316\027\202>#4\222=D:t\275\312\335\003<\262tB\276\013\271^>\214\270T>\373\362\242=\266\021p>j\213\351=_B\005\275\245g>=\272\367\267=\344\257\027\276\322\304C>\036#\304\275d6\020>\214\217\016\275\3501\027\276\016\260\250=o\303R\275\014\tg=K\325P>\002\007=\276\036\247\220=:d\203;\366\264\227=\374\254\000\275~\334\226=\322\256G\274\214L\r\276\023\254\326;\200\231\016>:\3574=\277b\022\276]\304\225<\021\241!\276u\016$\276\347\033-\276Y\177@\275 \2735\276\024\302W>\333L8>\270\375\037\2762@\037>~?\022>\034\250/>\224iX=\221\354\201;}$!\276\001\362Q=\260\353\263=\020\301\267=\2746d=v\205\275=\"\014\222=\360\326\014>\272TP\276r\330&\275\302\253\331=\265[\374\275#\306<>(\034-\276\256[\225\275\367\265\375\275@\\\300\275\306\314#\276\321\241\022>\227\310\336\275\021k\r<j~U>\265\006/>\357\2443\276\337qC\274\032\342)>R\204{\276\206\213_\275gf\203\275}\376+\276Av\n\276o\005\357\274\305CM\274\203\212\324;\3777T=A\036\021>\362\031\334==\260\030\276\251E.>\215\250\300\275\3535W\276(\264\214<\275\224?>\263\254\317\274`R\027>\350;\310=\353D;\276x\331t<\242\322`=#+7>z\3108>/Yw\276$\235i>\224\\\355=\264\360\177>\326/\342\275\244\250\177>\200\014\332\272\203\326\206=:\336\026\276\034\036\212=\312\315Y\276\314!\272\275\304\263\007<\220\r\360\274\223\352\236\274\367b>>\347\007\005>\357\301\014>\014\271=\276\002!\000\276\363\356\017>\300\254\222;hW\373=\315\006\035>\374\030#\275\374\340r=\020\367W\275\232\201<\274\004\230G>\363\023\">m\253\360\275y\377\202\276\324\362K\275\255<2\276Qy\027>q!\371=~\3300\2765\355\327\275q\033)>\322j\022=\253,\273=\213\000\241\275\025P!>KC\333<\224\315\r>\355.F>\031O^\276\213\271\002>\246y\305=o\362\t>\334\r\003>\200\201\226:\264\342n=\273\222Y\276\027\230\037>\202z\325=\327\0362\276Gp\253=\231\321\244=\335 \021>\020+\016\276\277\323_\275E\213W>\327\031\261\274s\013\262;\005\240\335\275J\342\007\276!\272\346\275\260\034\317\274\274\276\253\275\244\273/\275\305\r2=\207F\235\275\017\332\021\276\236\214E\2762-\036\276\033\277G>2\220!\276j^\276\275\270g\260\275\224\207\024>I\305\003\276\344\340D>\301g\003>v\200\210\274pj\257\274\nH:>t\243\'\275\336j\215=)lP>03\225\275\355\364.>\352\275\346\275\350A\247\274\036R\020\276\356\177)\276\232G\034\276t\350\032=\342s\203=\376\340\204\275\254\026*\275\312\031\026\276\265\2257>\211EG\276^Q\236\275\037j\003>jE\215=$\303E=\203\233X\276QdS\276\037\036E>\177D0>\237\nM>@\2100\276Tjz=\360\357\274<\336\270\324=i\3768>`\344\242;^\322\364\275\362\t\256=y\304\022>,\300\316\275`\213\253<ps\000<xq\247\275d\302\014\275\333\255W>l\3054\275@W\354<\330\256\024\275j3\224=\031T\024>y\341[\276\010)p\275\024\326\311\275<\346U=r\206\000\276\000M\313\274\022\364\232=\272h\374\275\214\320g=Z\221\377=\337\013N>\251\311+>h\327\375\2744_!\275`[,\274\264\337O\276\270\2237\276\024a)\275\350\2729\276\032\215\200=O)\252=*\212\275=\r\212\221=0\327C>\351|&\276\006\235\311=\237\314*>\342\347\311=\004\325\'\276\022\'\n>\364\255\010;\345\236\214\276\360E$\274@h\235=\261\232D\2756\276\';\343t@>V\260j=\333\013\317\275R\350\t\275\334\270J>E\363+\276\377J\326=\227\301g\276hri\275b\354\345\274\244\220N=\361\260]>\370\306\000\276\036\r\010\276\363_\260\275\220 \364=\256\017e>\276\227\213\275\373\254j=\022\323(>\206\266\360=x\027\355\275\201|A>\007\265\014>$\245p>je\306=\036gw>\334\347$=\331\311+>MW\241=\340\246d\276i\222R\276\250_\255=\330\023\032>\340\210\270\275\311\260(\275\004\311Q\276\215M\362\275\213\354\226=\036\257a=\037\214J\276\262\343\356\275Z|\"\276\035\3503>\242\202I\276\344\363\304\275\2209\216\274\202G\254\275N\321\361=,\325y=\2570 \276W\004\277\275p#\r\274\216\005\277=\031\\\014\276\356\003\306\275\305\204\356\275P\210_\275\245\3612>\242\370\364=?I2>\250x\"\276<\213\'\276\027\013X>\343\322=>\200^\177\274\372T\033\276@\332\351\275\357X\037>\320N\247\274<\026\371\275\362\224\n\276\260\275?<\230\216\023\276\'\314\001>d4^=2\350K\276\312%\363=\252\213\301=\306B\347=8vV\275\020\333 <e\177/\276D(u=\343\204I>\3213S> \306t\274\336P\234=|\260\234\275\371^\'>\233\257.>RH\312=\036X\327=\217\277$>\275\362\013>@@\026\275b\301\224\275\220\033p\275\352\004\351=$\313$=0\364\025\276\310\371\244\275\374+)=\270\264\310\27558B>\303/\022>\230\350\374<\232\222\304=Cj5>\263\212J>2J\267=\324\336\224\275\"\312\240=\340\360+\275\233\001?>!\0046>#_9>\013)W\276\300jy\275F\375\346=\n\375 \276\026\236\257=/\017!\2767[\317\275\374\236e=\375g\">\001\271\341\275\332\260S\276\250\000\320<\371\017>>\231\315\026\276\\\326\016\2756\247\203=\264/\024\276\006/\225=4\014\177=(\3779\275\225\013H>\323\\\t>z\270@\276\324\326\211\275\371CZ>\3110;>\215\334\006>/0L>\254\265k=8/T\275i\273[>\270\201;\276\034\017S\275\256\034\221=\202\202\201\275\227\320\034>\361\273\302\275,\206x=\274\234Q\276FT\244=\314\254\026\276\020;\033\2764\022\177=V\206\232\275\360\0175\276H\372\t\276\340w \276\360\\t\2740\346\n\275\251~]>|E\004\276&\246\013\276`\354\357\274\364\r\036\276\256\016\363\275\364\335\010\2762~\215=\314;c=f\037P\276\374\267J\276^\271\262\275\233q\037\276j|)=1~=\274\200\210\213;F\246\241=\346$\314\2759\240\256=\005\213\026>\211\370\n>5\031)>\364\357\315\273\365Z\370=J\266\220\275S\027\\>bO\206=iU\245\274\304\214*>\221\016g=k\270\031>\357\010S>\237\214\337\274\035\217\202\275\351\344/\276iv\375=\250@\214\275\014\231\251\275\007\371\334\2750\314\020\276w\023\245\275\360\001\275=\225\036\010>!\016\365=\217\312,=\210\241\005\276X\375->j\266\360\275\304\237\225=\202p2\276\332L`>\2162\264\275Lj\335=}\326\001\276\340\234.>\022\266\232=\314\336\372<\211^\243\273XiN=3\375\257=\214$\262\275\314\274\020>\356\225\027\276\210\275\223;\221H\276\274ghO=\276\257\206=\334\254J\276\240c,\276\2619\325=J\3155\275=\275x>Q?\310\275>\267\234=\212F\337\275\241\355)>f\370\013\276.N~\274\010\177Y\276L| =\325\261M>\266\223B\276O\246:>0\024\205\275}\233\032\276\014\r\025\2754\246_\274\334\323\002\275\\\010\\=\306\021\252\275\022\363;\276z\332V;V\327\224= \374X>F\226i>\321\256M=6\233/>+\r\275\273d\207\032\276W\206\203<\350\036\330<\372\270&\276\255D\226=\253Z)>~\264\221\274\3538\357=\372t\233<\271\266\210\275\334!s\276\210{\236=\313\321\205\276<\330\202\275\t\226\n>V\3602\276iA\026\276\301:\272=\345g\272=t\326-\275\033\252\360<\201\315\313=\376\233\033>\362\364\203=(\371\250=}-\236\274\260\243\021\274\004S\330=\2145\014=H)\001;\224\235\004<\267\2105\275\373p$>y\337\316\275\021\001L\276\357Y0\272\303:*<\244\261\226\275\022\010\340=\334F\"\275"
      }
    }
  }
}
node {
  name: "dense_1_1/bias"
  op: "Const"
  attr {
    key: "dtype"
    value {
      type: DT_FLOAT
    }
  }
  attr {
    key: "value"
    value {
      tensor {
        dtype: DT_FLOAT
        tensor_shape {
          dim {
            size: 64
          }
        }
